node {
  name: "global_step/Initializer/zeros"
  op: "Const"
  attr {
    key: "_class"
    value {
      list {
        s: "loc:@global_step"
      }
    }
  }
  attr {
    key: "_output_shapes"
    value {
      list {
        shape {
        }
      }
    }
  }
  attr {
    key: "dtype"
    value {
      type: DT_INT64
    }
  }
  attr {
    key: "value"
    value {
      tensor {
        dtype: DT_INT64
        tensor_shape {
        }
        int64_val: 0
      }
    }
  }
}
node {
  name: "global_step"
  op: "VarHandleOp"
  attr {
    key: "_class"
    value {
      list {
        s: "loc:@global_step"
      }
    }
  }
  attr {
    key: "_output_shapes"
    value {
      list {
        shape {
        }
      }
    }
  }
  attr {
    key: "allowed_devices"
    value {
      list {
      }
    }
  }
  attr {
    key: "container"
    value {
      s: ""
    }
  }
  attr {
    key: "dtype"
    value {
      type: DT_INT64
    }
  }
  attr {
    key: "shape"
    value {
      shape {
      }
    }
  }
  attr {
    key: "shared_name"
    value {
      s: "global_step"
    }
  }
}
node {
  name: "global_step/IsInitialized/VarIsInitializedOp"
  op: "VarIsInitializedOp"
  input: "global_step"
  attr {
    key: "_output_shapes"
    value {
      list {
        shape {
        }
      }
    }
  }
}
node {
  name: "global_step/Assign"
  op: "AssignVariableOp"
  input: "global_step"
  input: "global_step/Initializer/zeros"
  attr {
    key: "dtype"
    value {
      type: DT_INT64
    }
  }
}
node {
  name: "global_step/Read/ReadVariableOp"
  op: "ReadVariableOp"
  input: "global_step"
  attr {
    key: "_output_shapes"
    value {
      list {
        shape {
        }
      }
    }
  }
  attr {
    key: "dtype"
    value {
      type: DT_INT64
    }
  }
}
node {
  name: "global_step/VarIsInitializedOp"
  op: "VarIsInitializedOp"
  input: "global_step"
  attr {
    key: "_output_shapes"
    value {
      list {
        shape {
        }
      }
    }
  }
}
node {
  name: "global_step/cond"
  op: "If"
  input: "global_step/VarIsInitializedOp"
  input: "global_step"
  input: "global_step/Initializer/zeros"
  attr {
    key: "Tcond"
    value {
      type: DT_BOOL
    }
  }
  attr {
    key: "Tin"
    value {
      list {
        type: DT_RESOURCE
        type: DT_INT64
      }
    }
  }
  attr {
    key: "Tout"
    value {
      list {
        type: DT_INT64
      }
    }
  }
  attr {
    key: "_lower_using_switch_merge"
    value {
      b: true
    }
  }
  attr {
    key: "_output_shapes"
    value {
      list {
        shape {
        }
      }
    }
  }
  attr {
    key: "_read_only_resource_inputs"
    value {
      list {
        i: 1
      }
    }
  }
  attr {
    key: "else_branch"
    value {
      func {
        name: "global_step_cond_false_37"
      }
    }
  }
  attr {
    key: "output_shapes"
    value {
      list {
        shape {
        }
      }
    }
  }
  attr {
    key: "then_branch"
    value {
      func {
        name: "global_step_cond_true_36"
      }
    }
  }
}
node {
  name: "global_step/cond/Identity"
  op: "Identity"
  input: "global_step/cond"
  attr {
    key: "T"
    value {
      type: DT_INT64
    }
  }
  attr {
    key: "_output_shapes"
    value {
      list {
        shape {
        }
      }
    }
  }
}
node {
  name: "global_step/add/y"
  op: "Const"
  attr {
    key: "_output_shapes"
    value {
      list {
        shape {
        }
      }
    }
  }
  attr {
    key: "dtype"
    value {
      type: DT_INT64
    }
  }
  attr {
    key: "value"
    value {
      tensor {
        dtype: DT_INT64
        tensor_shape {
        }
        int64_val: 0
      }
    }
  }
}
node {
  name: "global_step/add"
  op: "AddV2"
  input: "global_step/cond/Identity"
  input: "global_step/add/y"
  attr {
    key: "T"
    value {
      type: DT_INT64
    }
  }
  attr {
    key: "_output_shapes"
    value {
      list {
        shape {
        }
      }
    }
  }
}
node {
  name: "normalize_element/component_0"
  op: "Const"
  device: "/device:CPU:0"
  attr {
    key: "_output_shapes"
    value {
      list {
        shape {
          dim {
            size: 318
          }
        }
      }
    }
  }
  attr {
    key: "dtype"
    value {
      type: DT_DOUBLE
    }
  }
  attr {
    key: "value"
    value {
      tensor {
        dtype: DT_DOUBLE
        tensor_shape {
          dim {
            size: 318
          }
        }
        tensor_content: "\356\237X\241\223\310\375\277A\0222\020\037\267\365?\242\344do9\371\376?|\3472\342\363\017\343\277\227\3209\373&@\253\277\365\350\227\221\026\213\355?\201\361\"\003\205\220\223?\006=1>J^\330?\310\2310/8U\300?\227\3209\373&@\253\277:\037\313v\266l\321?\000Hf\315F\215\332\2774\201e\233f\365\002@\023\202\315\254K\365\315\277r\334\330%C\377\367\277\241\272\317\334-\342\266\277\275\257\232M1\263\304\277O\274~\346\270 \343?\356{\245:\360\201\360?8\326\213\2063\252\361?+\261\377\374S.\337\277\204\221\177\270\215y\360\277\312\177\376a\t\352\350?r\334\330%C\377\367\277\367\252\262]D\331\350\277b\366\345\305\275\210\346\277\265\372\030\350\232\032\365\277\311\035\367?wL\254?\253&\022RA\270\006@\335\271eA\016R\354\277\201\361\"\003\205\220\223?\026\251\230\340\021\026\361?1\246\312mW\377\334?\021\234\377yz`\345\277U\220\205|\022\203\001@i?%\266@K\366?\344\002\2451\221\024\374?|\3472\342\363\017\343\277\237u3n,K\321\277|\3472\342\363\017\343\277r\334\330%C\377\367\277i?%\266@K\366?FC~\335Y\263\356?|\3472\342\363\017\343\277\310\2310/8U\300?\000Hf\315F\215\332\277\311\035\367?wL\254?8\326\213\2063\252\361?\227\3209\373&@\253\277:\037\313v\266l\321?\311\035\367?wL\254?\227\3209\373&@\253\277\321S\005\370bL\007@i?%\266@K\366?\326\336\314\2359\354\325\277\247\361\375\325\320\256\332?\247\361\375\325\320\256\332?\000Hf\315F\215\332\277\344\002\2451\221\024\374?\223\"L-F;\003\300`4\313\371\217:\353?\227\3209\373&@\253\277\3462fJm\277\340\277\036lc\216R\227\311?\227\3209\373&@\253\2770\276\230c\353\343\372\277\227\3209\373&@\253\277\237u3n,K\321\277\376a\230\232u\370\341?\000Hf\315F\215\332\277\344pK~?q\345?i?%\266@K\366?\367\252\262]D\331\350\277\306A\031.78\344\277\230\t\314\313d\223\370\277\"\314\276\010\034{\n@\322Z\227\005\336O\337?\227\3209\373&@\253\277\310\2310/8U\300?\333\323\227\016=\275\323?r\334\330%C\377\367\277\201\361\"\003\205\220\223?\367\252\262]D\331\350\277\265\372\030\350\232\032\365\2774\201e\233f\365\002@\242\344do9\371\376?\221l\030\\b\337\366?\310\2310/8U\300?\275\310\030%\330\312\357\277\000Hf\315F\215\332\277\367\030Y\252\3625\362\277\310\2310/8U\300?\344\002\2451\221\024\374?\253]ex\230f\363?\241\272\317\334-\342\266\277\275\257\232M1\263\304\277\335\271eA\016R\354\277\000Hf\315F\215\332\277:\037\313v\266l\321?\367\252\262]D\331\350\277|\3472\342\363\017\343\277\227\3209\373&@\253\277rn2\331\224\242\356\277\310\2310/8U\300?|\3472\342\363\017\343\277\224\026e2\374H\344?\322Z\227\005\336O\337?|\3472\342\363\017\343\277\243\352k\310U\253\002@\271\007\262N2\320\340?\326@\214\357\235V\000\300\322Z\227\005\336O\337?\023\202\315\254K\365\315\277:a.\377Uh\267?\367\030Y\252\3625\362\277\311\035\367?wL\254?\227\3209\373&@\253\277\333\323\227\016=\275\323?\253]ex\230f\363?\000Hf\315F\215\332\277\344pK~?q\345?\242\344do9\371\376?0\276\230c\353\343\372\277\253]ex\230f\363?\367\030Y\252\3625\362\277|\3472\342\363\017\343\277\242\344do9\371\376?\326@\214\357\235V\000\300\356{\245:\360\201\360?\000Hf\315F\215\332\277b\366\345\305\275\210\346\277\036lc\216R\227\311?\333\323\227\016=\275\323?A\0222\020\037\267\365?\237u3n,K\321\277A\0222\020\037\267\365?\367\030Y\252\3625\362\277j\2402\234W\362\363\277\356{\245:\360\201\360?0\276\230c\353\343\372\277z%\030\026\306\301\347?M\257\345\177!k\367\277{F\001\036$\022\300\277\036lc\216R\227\311?\023\202\315\254K\365\315\277\204\221\177\270\215y\360\277z%\030\026\306\301\347?j\2402\234W\362\363\277\310\2310/8U\300?\254P\314\021\001\261\347\277\367\030Y\252\3625\362\277\036lc\216R\227\311?\344pK~?q\345?rn2\331\224\242\356\277\227\3209\373&@\253\277\367\252\262]D\331\350\277r\023,L\232\255\004\300\006=1>J^\330?\237u3n,K\321\277\367\030Y\252\3625\362\277|\210d\246\303\r\326?{F\001\036$\022\300\277\253]ex\230f\363?O\274~\346\270 \343?\023\202\315\254K\365\315\277O\274~\346\270 \343?\311\035\367?wL\254?\333\323\227\016=\275\323?\023\202\315\254K\365\315\277|\3472\342\363\017\343\277|\3472\342\363\017\343\277`4\313\371\217:\353?\365\350\227\221\026\213\355?\322Z\227\005\336O\337?\367\252\262]D\331\350\277rn2\331\224\242\356\277\227\3209\373&@\253\277|\3472\342\363\017\343\277\227\3209\373&@\253\277:\037\313v\266l\321?\344pK~?q\345?`4\313\371\217:\353?\021\234\377yz`\345\277\023\202\315\254K\365\315\277\310\2310/8U\300?\310\2310/8U\300?\n\003\312^E\366\304?\311\035\367?wL\254?\322Z\227\005\336O\337?\023\202\315\254K\365\315\277\000Hf\315F\215\332\277\275\310\030%\330\312\357\277\000Hf\315F\215\332\277\367\252\262]D\331\350\277\013\221\245\275\311O\372\277\023\202\315\254K\365\315\277\000Hf\315F\215\332\277r\334\330%C\377\367\2775\3131\312\202\231\346?`4\313\371\217:\353?\310\2310/8U\300?\326\336\314\2359\354\325\277\322Z\227\005\336O\337?\000Hf\315F\215\332\277|\3472\342\363\017\343\277\350\0304}>T\311\277\017\332\344\255L\022\352?\201\361\"\003\205\220\223?\227\3209\373&@\253\277\322Z\227\005\336O\337?\365\350\227\221\026\213\355?r\334\330%C\377\367\277\217\315%By\206\364\277\326\336\314\2359\354\325\277\333\323\227\016=\275\323?|\210d\246\303\r\326?1\246\312mW\377\334?\351&\177O#\315\001@\260\216\261E\323b\354?\2651l\016\362\310\001\300ON\330\231\n\304\371?\000Hf\315F\215\332\277\367\252\262]D\331\350\277ON\330\231\n\304\371?5*\000\006\263\233\323\277\322Z\227\005\336O\337?{\275x\"4\027\002@\000Hf\315F\215\332\277\254P\314\021\001\261\347\277\000Hf\315F\215\332\277\311\035\367?wL\254?5\3131\312\202\231\346?\226\3742e\315\335\334\277\026\251\230\340\021\026\361?|\3472\342\363\017\343\277\226\3742e\315\335\334\277\367\030Y\252\3625\362\277\2756\277q\206\'\371\277\253]ex\230f\363?\356{\245:\360\201\360?\310\2310/8U\300?\326@\214\357\235V\000\3005\3131\312\202\231\346?\345c\262\027\250\273\371\277\023\202\315\254K\365\315\277\000Hf\315F\215\332\277\326W\250y\344w\221\277a\003\177,U>\362?|\3472\342\363\017\343\277\274\325\261\213o\200\373?\367\252\262]D\331\350\277\333\323\227\016=\275\323?\2651l\016\362\310\001\300\265\372\030\350\232\032\365\277\006=1>J^\330?\365\350\227\221\026\213\355?rn2\331\224\242\356\277\376\363\361M\307\233\370?\265\372\030\350\232\032\365\277\000Hf\315F\215\332\2770\276\230c\353\343\372\277\326\336\314\2359\354\325\277\227\3209\373&@\253\277\253]ex\230f\363?\333\323\227\016=\275\323?1\215L\226\260\347\341\277\366\267K\304\333\216\364?O\274~\346\270 \343?5*\000\006\263\233\323\277:\037\313v\266l\321?r\023,L\232\255\004\300\023\202\315\254K\365\315\277\333\323\227\016=\275\323?\310\2310/8U\300?rn2\331\224\242\356\277|\3472\342\363\017\343\277\310\2310/8U\300?rn2\331\224\242\356\277\333\323\227\016=\275\323?\366\267K\304\333\216\364?\3462fJm\277\340\277\312\177\376a\t\352\350?rn2\331\224\242\356\277\333\323\227\016=\275\323?\322Z\227\005\336O\337?\265\372\030\350\232\032\365\277\242\344do9\371\376?:a.\377Uh\267?rn2\331\224\242\356\277\237u3n,K\321\277\026\251\230\340\021\026\361?\226\3742e\315\335\334\277\023\202\315\254K\365\315\277rn2\331\224\242\356\277\023\202\315\254K\365\315\277z%\030\026\306\301\347?\335\271eA\016R\354\277\326@\214\357\235V\000\300\322Z\227\005\336O\337?`4\313\371\217:\353?\000Hf\315F\215\332\277\000Hf\315F\215\332\277\366\267K\304\333\216\364?5\3131\312\202\231\346?:\037\313v\266l\321?\241\272\317\334-\342\266\277\253]ex\230f\363?\376a\230\232u\370\341?\322Z\227\005\336O\337?\275\257\232M1\263\304\277\310\2310/8U\300?\227\3209\373&@\253\277\026\251\230\340\021\026\361?\023\202\315\254K\365\315\277/]\213}\324<\375?0\276\230c\353\343\372\277\367\252\262]D\331\350\277|\3472\342\363\017\343\277"
      }
    }
  }
}
node {
  name: "normalize_element/component_1"
  op: "Const"
  device: "/device:CPU:0"
  attr {
    key: "_output_shapes"
    value {
      list {
        shape {
          dim {
            size: 318
          }
        }
      }
    }
  }
  attr {
    key: "dtype"
    value {
      type: DT_DOUBLE
    }
  }
  attr {
    key: "value"
    value {
      tensor {
        dtype: DT_DOUBLE
        tensor_shape {
          dim {
            size: 318
          }
        }
        tensor_content: "\257\355n\312\314\212\370?\335\370\243 4&\353\277\200\3429te\357\325?\335\370\243 4&\353\277\335\370\243 4&\353\277\200\3429te\357\325?\335\370\243 4&\353\277\200\3429te\357\325?\200\3429te\357\325?\335\370\243 4&\353\277\335\370\243 4&\353\277\335\370\243 4&\353\277\335\370\243 4&\353\277\257\355n\312\314\212\370?\257\355n\312\314\212\370?\335\370\243 4&\353\277\257\355n\312\314\212\370?\335\370\243 4&\353\277\335\370\243 4&\353\277\200\3429te\357\325?\257\355n\312\314\212\370?\257\355n\312\314\212\370?\335\370\243 4&\353\277\257\355n\312\314\212\370?\3666\002\307\223\032\367\277\257\355n\312\314\212\370?\257\355n\312\314\212\370?\200\3429te\357\325?\335\370\243 4&\353\277\257\355n\312\314\212\370?\335\370\243 4&\353\277\335\370\243 4&\353\277\200\3429te\357\325?\200\3429te\357\325?\335\370\243 4&\353\277\335\370\243 4&\353\277\335\370\243 4&\353\277\335\370\243 4&\353\277\257\355n\312\314\212\370?\335\370\243 4&\353\277\257\355n\312\314\212\370?\335\370\243 4&\353\277\335\370\243 4&\353\277\257\355n\312\314\212\370?\335\370\243 4&\353\277\257\355n\312\314\212\370?\200\3429te\357\325?\200\3429te\357\325?\200\3429te\357\325?\335\370\243 4&\353\277\200\3429te\357\325?\200\3429te\357\325?\335\370\243 4&\353\277\335\370\243 4&\353\277\335\370\243 4&\353\277\335\370\243 4&\353\277\335\370\243 4&\353\277\335\370\243 4&\353\277\335\370\243 4&\353\277\257\355n\312\314\212\370?\335\370\243 4&\353\277\200\3429te\357\325?\335\370\243 4&\353\277\335\370\243 4&\353\277\335\370\243 4&\353\277\257\355n\312\314\212\370?\335\370\243 4&\353\277\335\370\243 4&\353\277\200\3429te\357\325?\257\355n\312\314\212\370?\335\370\243 4&\353\277\200\3429te\357\325?\335\370\243 4&\353\277\257\355n\312\314\212\370?\200\3429te\357\325?\335\370\243 4&\353\277\335\370\243 4&\353\277\200\3429te\357\325?\335\370\243 4&\353\277\335\370\243 4&\353\277\257\355n\312\314\212\370?\335\370\243 4&\353\277\3666\002\307\223\032\367\277\257\355n\312\314\212\370?\257\355n\312\314\212\370?\200\3429te\357\325?\200\3429te\357\325?\200\3429te\357\325?\335\370\243 4&\353\277\335\370\243 4&\353\277\257\355n\312\314\212\370?\200\3429te\357\325?\335\370\243 4&\353\277\200\3429te\357\325?\200\3429te\357\325?\335\370\243 4&\353\277\257\355n\312\314\212\370?\257\355n\312\314\212\370?\335\370\243 4&\353\277\200\3429te\357\325?\257\355n\312\314\212\370?\200\3429te\357\325?\257\355n\312\314\212\370?\257\355n\312\314\212\370?\200\3429te\357\325?\257\355n\312\314\212\370?\335\370\243 4&\353\277\335\370\243 4&\353\277\335\370\243 4&\353\277\200\3429te\357\325?\257\355n\312\314\212\370?\200\3429te\357\325?\257\355n\312\314\212\370?\235\007\207f\201.\320\277\3666\002\307\223\032\367\277\335\370\243 4&\353\277\200\3429te\357\325?\335\370\243 4&\353\277\335\370\243 4&\353\277\335\370\243 4&\353\277\335\370\243 4&\353\277\200\3429te\357\325?\257\355n\312\314\212\370?\335\370\243 4&\353\277\257\355n\312\314\212\370?\257\355n\312\314\212\370?\335\370\243 4&\353\277\257\355n\312\314\212\370?\257\355n\312\314\212\370?\335\370\243 4&\353\277\257\355n\312\314\212\370?\335\370\243 4&\353\277\335\370\243 4&\353\277\335\370\243 4&\353\277\335\370\243 4&\353\277\335\370\243 4&\353\277\257\355n\312\314\212\370?\335\370\243 4&\353\277\200\3429te\357\325?\257\355n\312\314\212\370?\200\3429te\357\325?\335\370\243 4&\353\277\335\370\243 4&\353\277\200\3429te\357\325?\335\370\243 4&\353\277\335\370\243 4&\353\277\335\370\243 4&\353\277\257\355n\312\314\212\370?\335\370\243 4&\353\277\200\3429te\357\325?\257\355n\312\314\212\370?\335\370\243 4&\353\277\335\370\243 4&\353\277\257\355n\312\314\212\370?\200\3429te\357\325?\257\355n\312\314\212\370?\257\355n\312\314\212\370?\200\3429te\357\325?\335\370\243 4&\353\277\257\355n\312\314\212\370?\335\370\243 4&\353\277\335\370\243 4&\353\277\335\370\243 4&\353\277\335\370\243 4&\353\277\335\370\243 4&\353\277\335\370\243 4&\353\277\335\370\243 4&\353\277\200\3429te\357\325?\335\370\243 4&\353\277\335\370\243 4&\353\277\257\355n\312\314\212\370?\200\3429te\357\325?\335\370\243 4&\353\277\200\3429te\357\325?\257\355n\312\314\212\370?\257\355n\312\314\212\370?\335\370\243 4&\353\277\335\370\243 4&\353\277\335\370\243 4&\353\277\335\370\243 4&\353\277\335\370\243 4&\353\277\335\370\243 4&\353\277\335\370\243 4&\353\277\335\370\243 4&\353\277\335\370\243 4&\353\277\335\370\243 4&\353\277\335\370\243 4&\353\277\200\3429te\357\325?\200\3429te\357\325?\335\370\243 4&\353\277\335\370\243 4&\353\277\200\3429te\357\325?\257\355n\312\314\212\370?\257\355n\312\314\212\370?\257\355n\312\314\212\370?\257\355n\312\314\212\370?\335\370\243 4&\353\277\257\355n\312\314\212\370?\335\370\243 4&\353\277\335\370\243 4&\353\277\200\3429te\357\325?\335\370\243 4&\353\277\335\370\243 4&\353\277\200\3429te\357\325?\257\355n\312\314\212\370?\200\3429te\357\325?\335\370\243 4&\353\277\335\370\243 4&\353\277\335\370\243 4&\353\277\335\370\243 4&\353\277\335\370\243 4&\353\277\257\355n\312\314\212\370?\257\355n\312\314\212\370?\335\370\243 4&\353\277\200\3429te\357\325?\200\3429te\357\325?\335\370\243 4&\353\277\335\370\243 4&\353\277\335\370\243 4&\353\277\257\355n\312\314\212\370?\335\370\243 4&\353\277\200\3429te\357\325?\3666\002\307\223\032\367\277\235\007\207f\201.\320\277\335\370\243 4&\353\277\335\370\243 4&\353\277\335\370\243 4&\353\277\335\370\243 4&\353\277\335\370\243 4&\353\277\200\3429te\357\325?\335\370\243 4&\353\277\200\3429te\357\325?\335\370\243 4&\353\277\335\370\243 4&\353\277\257\355n\312\314\212\370?\335\370\243 4&\353\277\335\370\243 4&\353\277\200\3429te\357\325?\335\370\243 4&\353\277\335\370\243 4&\353\277\257\355n\312\314\212\370?\257\355n\312\314\212\370?\335\370\243 4&\353\277\257\355n\312\314\212\370?\335\370\243 4&\353\277\257\355n\312\314\212\370?\335\370\243 4&\353\277\335\370\243 4&\353\277\335\370\243 4&\353\277\335\370\243 4&\353\277\257\355n\312\314\212\370?\200\3429te\357\325?\257\355n\312\314\212\370?\257\355n\312\314\212\370?\335\370\243 4&\353\277\200\3429te\357\325?\200\3429te\357\325?\235\007\207f\201.\320\277\257\355n\312\314\212\370?\200\3429te\357\325?\257\355n\312\314\212\370?\200\3429te\357\325?\335\370\243 4&\353\277\335\370\243 4&\353\277\335\370\243 4&\353\277\335\370\243 4&\353\277\335\370\243 4&\353\277\335\370\243 4&\353\277\335\370\243 4&\353\277\200\3429te\357\325?\257\355n\312\314\212\370?\200\3429te\357\325?\335\370\243 4&\353\277\200\3429te\357\325?\257\355n\312\314\212\370?\257\355n\312\314\212\370?\335\370\243 4&\353\277\257\355n\312\314\212\370?\335\370\243 4&\353\277\335\370\243 4&\353\277\335\370\243 4&\353\277\200\3429te\357\325?\335\370\243 4&\353\277\335\370\243 4&\353\277\335\370\243 4&\353\277\257\355n\312\314\212\370?\335\370\243 4&\353\277\335\370\243 4&\353\277\257\355n\312\314\212\370?\257\355n\312\314\212\370?\335\370\243 4&\353\277\335\370\243 4&\353\277\200\3429te\357\325?\257\355n\312\314\212\370?\200\3429te\357\325?\200\3429te\357\325?\335\370\243 4&\353\277\257\355n\312\314\212\370?\335\370\243 4&\353\277\335\370\243 4&\353\277\335\370\243 4&\353\277\335\370\243 4&\353\277\200\3429te\357\325?\200\3429te\357\325?\335\370\243 4&\353\277\200\3429te\357\325?\257\355n\312\314\212\370?\200\3429te\357\325?\200\3429te\357\325?\335\370\243 4&\353\277\200\3429te\357\325?\335\370\243 4&\353\277\335\370\243 4&\353\277\200\3429te\357\325?\335\370\243 4&\353\277\257\355n\312\314\212\370?\257\355n\312\314\212\370?\335\370\243 4&\353\277"
      }
    }
  }
}
node {
  name: "normalize_element/component_2"
  op: "Const"
  device: "/device:CPU:0"
  attr {
    key: "_output_shapes"
    value {
      list {
        shape {
          dim {
            size: 318
          }
        }
      }
    }
  }
  attr {
    key: "dtype"
    value {
      type: DT_DOUBLE
    }
  }
  attr {
    key: "value"
    value {
      tensor {
        dtype: DT_DOUBLE
        tensor_shape {
          dim {
            size: 318
          }
        }
        tensor_content: "\352\307\347P\237\r\361?\274::)\256Z\346\277#\376\273Q\036\020\342?,6Y\034-\234\357\277W\204i\323S\325\354\277\361-\2309\253\027\265?p\241\257\303\266\274\345\277\361-\2309\253\027\265?\361-\2309\253\027\265?\206\351\223i1M\357\277\017\216T\032\220D\360\277\375\320.\206O$\355\277b4\267\363\rl\360\277\352\307\347P\237\r\361?\207%l\024\207R\002@B\342\025\376\020\300\337\277\031-\022\347|\205\363?b4\267\363\rl\360\277W\204i\323S\325\354\277\341\003\357\270\023\263\324?\311\235\311\354\265\234\370?\352\307\347P\237\r\361?\375\320.\206O$\355\277\324\271UD\346\025\000@=\363~\260m\274\362\277\031-\022\347|\205\363?\352\307\347P\237\r\361?u\034\242\336\326\216\321\277\375\320.\206O$\355\277\031-\022\347|\205\363?\340\234\316\2665\376\356\277\026\356tv\262\013\346\277\247\233.\032\340f\330?|J\326\234D\014\334\277\206\351\223i1M\357\277B\342\025\376\020\300\337\277\001L!\241o\366\330\277p\241\257\303\266\274\345\277\352\307\347P\237\r\361?\206\351\223i1M\357\277\'h\036\031q\214\375?\343?Dci\013\363\277\026\356tv\262\013\346\277\031-\022\347|\205\363?\001L!\241o\366\330\277\352\307\347P\237\r\361?\247\233.\032\340f\330?\341\003\357\270\023\263\324?#\376\273Q\036\020\342?\017\216T\032\220D\360\277\247\233.\032\340f\330?\3634\271\177\327\004\331?\206\351\223i1M\357\277\026\356tv\262\013\346\277\340\234\316\2665\376\356\277\334\205\264\327~\277\351\277b4\267\363\rl\360\277\202\322y\212z\016\352\277\375\320.\206O$\355\277\224D\2751,@\004@\230\246\271\375qm\362\277\224cC\r\360\'\260?\004\275\252\257\356\271\341\277\340\234\316\2665\376\356\277B\342\025\376\020\300\337\277\031-\022\347|\205\363?p\241\257\303\266\274\345\277\316k\004\360q\254\352\277\341\003\357\270\023\263\324?v\367f\0238u\370?\026\356tv\262\013\346\277#\376\273Q\036\020\342?p\241\257\303\266\274\345\277\220\024\255\003\233\\\361?\365;\332\305\003\362\314\277\367H\213\230\031\"\337\277b4\267\363\rl\360\277\302\310m\243\315\237\262?\001L!\241o\366\330\277L\r/\230z\317\361\277\220\024\255\003\233\\\361?\234\357\277z\335\365\342\277=\363~\260m\274\362\277\324\271UD\346\025\000@\235\374pM\363%\345?\247\233.\032\340f\330?\310\343`\002<\252\334\277\3634\271\177\327\004\331?^p\345\374\362j\341\277p\241\257\303\266\274\345\277\342\272\017\335\030\204\361?\3634\271\177\327\004\331?\340\234\316\2665\376\356\277#\376\273Q\036\020\342?\247\233.\032\340f\330?\017\216T\032\220D\360\277\342\272\017\335\030\204\361?\031-\022\347|\205\363?\375\320.\206O$\355\277\207Ml\245\232\340\325\277\352\307\347P\237\r\361?\341\003\357\270\023\263\324?\311\235\311\354\265\234\370?\352\307\347P\237\r\361?\323\346\366\n\222~\326\277v\367f\0238u\370?\274::)\256Z\346\277\237\006\332Y\2244\350\277W\204i\323S\325\354\277\361-\2309\253\027\265?\275\227n\036\353S\004@#\376\273Q\036\020\342?\210\007\325\217\024\323\361?\366\242\372\307\341\246\342\277=\363~\260m\274\362\277\013\353\336m\\7\354\277\207Ml\245\232\340\325\277\313T\352\020\273m\345\277\353L\034\327\357\224\362\277\375\320.\206O$\355\277\221\354)r\207!\351\277#\376\273Q\036\020\342?O\270\n@\273+\003@W\204i\323S\325\354\277\324\271UD\346\025\000@\210\007\325\217\024\323\361?\375\320.\206O$\355\277\207%l\024\207R\002@\220\024\255\003\233\\\361?\375\320.\206O$\355\277\031-\022\347|\205\363?ES\237\014\220\203\350\277W\204i\323S\325\354\277b4\267\363\rl\360\277\316k\004\360q\254\352\277\246\300i\345~\200\361\277\031-\022\347|\205\363?\375\320.\206O$\355\277#\376\273Q\036\020\342?v\367f\0238u\370?\341\003\357\270\023\263\324?^p\345\374\362j\341\277\316k\004\360q\254\352\277#\376\273Q\036\020\342?\340\234\316\2665\376\356\277p\241\257\303\266\274\345\277W\204i\323S\325\354\277\324\271UD\346\025\000@^p\345\374\362j\341\277u\034\242\336\326\216\321\277\220\024\255\003\233\\\361?W\204i\323S\325\354\277t\270\311\242m\373\352\277\031-\022\347|\205\363?#\376\273Q\036\020\342?\311\235\311\354\265\234\370?k\364\320\n\342\240\376?\365;\332\305\003\362\314\277\274::)\256Z\346\277\324\271UD\346\025\000@W\204i\323S\325\354\277e\236\031\273`\350\353\277\375\320.\206O$\355\277,6Y\034-\234\357\277W\204i\323S\325\354\277B\342\025\376\020\300\337\277\375\320.\206O$\355\277\341\003\357\270\023\263\324?\237\006\332Y\2244\350\277\371\271\024\247\230\345\347\277\324\271UD\346\025\000@Rc\346\347\373\207\344?\340\234\316\2665\376\356\277#\376\273Q\036\020\342?\031-\022\347|\205\363?\263vA\221\"\000\372?S\032\007\014\001Y\361\277\313T\352\020\273m\345\277\004\275\252\257\356\271\341\277B\342\025\376\020\300\337\277\340\234\316\2665\376\356\277\243\035\3648Ks\355\277\340\234\316\2665\376\356\277\274::)\256Z\346\277\340\234\316\2665\376\356\277\313T\352\020\273m\345\277\255\315AY\005\n\361\277\361-\2309\253\027\265?\3634\271\177\327\004\331?p\241\257\303\266\274\345\277p\241\257\303\266\274\345\277\000?p\316Y\306\306\277\311\235\311\354\265\234\370?\311\235\311\354\265\234\370?\324\271UD\346\025\000@&\025\3260\325N\347?\206\351\223i1M\357\277\324\271UD\346\025\000@\340\234\316\2665\376\356\277ES\237\014\220\203\350\277#\376\273Q\036\020\342?\274::)\256Z\346\277W\204i\323S\325\354\277/\244\232d7>\311\277v\367f\0238u\370?Rc\346\347\373\207\344?\017\216T\032\220D\360\277^p\345\374\362j\341\277\313T\352\020\273m\345\277\202\322y\212z\016\352\277\375\320.\206O$\355\277\220\024\255\003\233\\\361?v\367f\0238u\370?\316k\004\360q\254\352\277#\376\273Q\036\020\342?\341\003\357\270\023\263\324?\256 \212A\241G\347\277|J\326\234D\014\334\277B\342\025\376\020\300\337\277\324\271UD\346\025\000@\001L!\241o\366\330\277|J\326\234D\014\334\277\000t\2442\2031\361\277+\2128\277\013\336\264\277\004\275\252\257\356\271\341\277\026\356tv\262\013\346\277\026\356tv\262\013\346\277\375\320.\206O$\355\277B\342\025\376\020\300\337\277#\376\273Q\036\020\342?B\342\025\376\020\300\337\277\361-\2309\253\027\265?\202\322y\212z\016\352\277S\032\007\014\001Y\361\277\263vA\221\"\000\372?W\204i\323S\325\354\277p\241\257\303\266\274\345\277\000?p\316Y\306\306\277S\032\007\014\001Y\361\277\313T\352\020\273m\345\277\352\307\347P\237\r\361?\275\227n\036\353S\004@\001L!\241o\366\330\277\352\307\347P\237\r\361?\026\356tv\262\013\346\277\031-\022\347|\205\363?B\342\025\376\020\300\337\277,6Y\034-\234\357\277\256 \212A\241G\347\277\367H\213\230\031\"\337\277v\367f\0238u\370?\224cC\r\360\'\260?\324\271UD\346\025\000@\220\024\255\003\233\\\361?\207Ml\245\232\340\325\277\3634\271\177\327\004\331?\3634\271\177\327\004\331?p\241\257\303\266\274\345\277v\367f\0238u\370?#\376\273Q\036\020\342?\263vA\221\"\000\372?\3634\271\177\327\004\331?\256 \212A\241G\347\277\375\320.\206O$\355\277\313T\352\020\273m\345\277\375\320.\206O$\355\277b4\267\363\rl\360\277\001L!\241o\366\330\277\353\237d\277\213\322\350\277#\376\273Q\036\020\342?O\270\n@\273+\003@#\376\273Q\036\020\342?\375\320.\206O$\355\277\341\003\357\270\023\263\324?\263vA\221\"\000\372?\031-\022\347|\205\363?\375\320.\206O$\355\277\342\272\017\335\030\204\361?\206\351\223i1M\357\277b4\267\363\rl\360\277\206\351\223i1M\357\277Rc\346\347\373\207\344?^p\345\374\362j\341\277\001L!\241o\366\330\277B\342\025\376\020\300\337\277\324\271UD\346\025\000@\353L\034\327\357\224\362\277W\204i\323S\325\354\277v\367f\0238u\370?v\367f\0238u\370?ES\237\014\220\203\350\277W\204i\323S\325\354\277\247\233.\032\340f\330?\031-\022\347|\205\363?\3634\271\177\327\004\331?\341\003\357\270\023\263\324?\001L!\241o\366\330\277\'h\036\031q\214\375?\252*\314\254\321\374\354\277\375\320.\206O$\355\277\207Ml\245\232\340\325\277\202\322y\212z\016\352\277\247\233.\032\340f\330?\3634\271\177\327\004\331?\340\234\316\2665\376\356\277\341\003\357\270\023\263\324?v\367f\0238u\370?\3634\271\177\327\004\331?\351\225\373\262\352\303\345?\334\205\264\327~\277\351\277\224cC\r\360\'\260?\334\205\264\327~\277\351\277b4\267\363\rl\360\277\302\310m\243\315\237\262?W\204i\323S\325\354\277\031-\022\347|\205\363?\031-\022\347|\205\363?\256 \212A\241G\347\277"
      }
    }
  }
}
node {
  name: "normalize_element/component_3"
  op: "Const"
  device: "/device:CPU:0"
  attr {
    key: "_output_shapes"
    value {
      list {
        shape {
          dim {
            size: 318
          }
        }
      }
    }
  }
  attr {
    key: "dtype"
    value {
      type: DT_DOUBLE
    }
  }
  attr {
    key: "value"
    value {
      tensor {
        dtype: DT_DOUBLE
        tensor_shape {
          dim {
            size: 318
          }
        }
        tensor_content: "\342\360\251\006\375\376\355?\036\337\022\362\276$\342\2770\305!\024\207q\352\277e\017\360}\001F\353\277\232Y\276\347{\032\354\277\267idJ\036j\315\277kc\tc\021~\322?\377\000Pi\237N\337\277\377\000Pi\237N\337\277\221\346\266\326\027\364\347\277l\013J1\255\212\360\277\362\007L\231\250v\345\277\252\310\037\254\213\205\365\277\320\n\233\3444\262\345?9\260\331?\256\210\003@\301Cz\356\300S\332\277\331}\242\365\230\330\351?\000\000\000\000\000\000\370\177\004\356Z\273p\303\355\277\355\032AG\327\001\327\277L\205F\332\361\247\357?\255\246\333\234\202*\355?98)%\353\227\356\277\020\013\357\276\334\205\375?\355\032AG\327\001\327\277\365\261\330\213\260\022\361?\233\300\314z\272\335\344?o\351\005\"\244/\350?u~QB\021\261\364\277\342\360\251\006\375\376\355?98)%\353\227\356\277\275\275}/.\242\344\277{t\271\356\021H\236?}I\030\205\331\312\332?\024]\274\177\200.\367\277\355\032AG\327\001\327\277\000\000\000\000\000\000\370\177\263\372\364\201\222b\304?\320\n\233\3444\262\345?\232Y\276\347{\032\354\277\224\304r\307\016\231\377?\3717\325JC\304\366\277\3060\205@\222\310\350\277zk\\\224\342%\363?\301Cz\356\300S\332\277C\022?\311\215\201\353?{t\271\356\021H\236?\263\372\364\201\222b\304?\301Cz\356\300S\332\277Q\346b\374o \360\277\263\372\364\201\222b\304?(;\215\014\034\241\271\277\024]\274\177\200.\367\277+\330\026\302\265\374\333\277\317\243\214Q\366\356\354\277\221\346\266\326\027\364\347\277\232Y\276\347{\032\354\277\221\346\266\326\027\364\347\277I\247\212\351\372\002\370\277\\H\310\205O\031\010@\317\243\214Q\366\356\354\277\267idJ\036j\315\277\267idJ\036j\315\27798)%\353\227\356\277\355\032AG\327\001\327\277zk\\\224\342%\363?[Lg\320e\006\313?\232Y\276\347{\032\354\277(;\215\014\034\241\271\277zk\\\224\342%\363?\221\346\266\326\027\364\347\2770\305!\024\207q\352\277kc\tc\021~\322?}I\030\205\331\312\332?:\2377\270)[\347?e\017\360}\001F\353\277\232Y\276\347{\032\354\277\020\030\362\373J\306\306\277\355\032AG\327\001\327\277\252\310\037\254\213\205\365\277zk\\\224\342%\363?\261/Q\337\352\262\250\277\020\030\362\373J\306\306\277\213Qk\266\252r\373?\355\032AG\327\001\327\277\263\372\364\201\222b\304?\\\234\350l\235\037\347\277(;\215\014\034\241\271\277\265Jv\036\312{\340\277[Lg\320e\006\313?\365\261\330\213\260\022\361?(;\215\014\034\241\271\277\232Y\276\347{\032\354\277<\357\270Tat\303\277kc\tc\021~\322?Q\346b\374o \360\277\365\261\330\213\260\022\361?zk\\\224\342%\363?\221\346\266\326\027\364\347\277QrQ,\303\034\336?\342\360\251\006\375\376\355?{t\271\356\021H\236?\311\332\0213\232d\364?\342\360\251\006\375\376\355?n\000\223\030\253\331\264?\307\227\223\323\320\213\341?\020\030\362\373J\306\306\277\267idJ\036j\315\277\326\237\346\004\2423\362\277\301Cz\356\300S\332\277\036%\n\212\350\"\t@(;\215\014\034\241\271\277S\325\300t\353\362\003@\303\030\331\204\210\326\226\277(;\215\014\034\241\271\277\000\000\000\000\000\000\370\177\026R\005g~}\273?\225l\263\225\252\245\335\277Q\346b\374o \360\277\362\007L\231\250v\345\277+\330\026\302\265\374\333\277\362\007L\231\250v\345\277\232k\206\201\266\017\007@\000\000\000\000\000\000\370\177<\342\265\027\3633\372?\320\n\233\3444\262\345?I\247\212\351\372\002\370\2779\260\331?\256\210\003@v\323\227;\025\177\002@\301Cz\356\300S\332\277\342\360\251\006\375\376\355?\377\000Pi\237N\337\277\004\356Z\273p\303\355\277Q\346b\374o \360\277\20601f\352\364\360\277\252\310\037\254\213\205\365\277zk\\\224\342%\363?e\017\360}\001F\353\277{t\271\356\021H\236?\224\304r\307\016\231\377?(;\215\014\034\241\271\277\265Jv\036\312{\340\277\3060\205@\222\310\350\277\263\372\364\201\222b\304?98)%\353\227\356\277\263\372\364\201\222b\304?\275\275}/.\242\344\277\317\033=l\271\337\001@\265Jv\036\312{\340\277\307\227\223\323\320\213\341?zk\\\224\342%\363?Q\346b\374o \360\277\267idJ\036j\315\277zk\\\224\342%\363?(;\215\014\034\241\271\277\311\332\0213\232d\364?\317\033=l\271\337\001@}I\030\205\331\312\332?\020\030\362\373J\306\306\277\317\033=l\271\337\001@\004\356Z\273p\303\355\277\352\224D\210DP\341\277\326\237\346\004\2423\362\277\241U\030\233\'_\361\277\210s\257\305\263\315\343\277\301Cz\356\300S\332\277\362\007L\231\250v\345\277{t\271\356\021H\236?\267idJ\036j\315\277\203\206\244s\342X\325\277zk\\\224\342%\363?\263\372\364\201\222b\304?\004\356Z\273p\303\355\277(;\215\014\034\241\271\277\327\216D}\035\006\006@\213Qk\266\252r\373?98)%\353\227\356\277\225l\263\225\252\245\335\277\355\032AG\327\001\327\277\032\362\007\240\355\257\323\277\217\2438wN\033\365\277\317\243\214Q\366\356\354\27798)%\353\227\356\277\032\362\007\240\355\257\323\277\004\356Z\273p\303\355\277\225l\263\225\252\245\335\277\326\237\346\004\2423\362\277\377\000Pi\237N\337\277\355\032AG\327\001\327\277\210s\257\305\263\315\343\277<\357\270Tat\303\277kc\tc\021~\322?_Fu_\245\273\362?E!\216*hQ\362?\224\304r\307\016\231\377?\307\227\223\323\320\213\341?\221\346\266\326\027\364\347\277\213Qk\266\252r\373?\004\356Z\273p\303\355\277\301Cz\356\300S\332\277{t\271\356\021H\236?\020\030\362\373J\306\306\277\20601f\352\364\360\277\020\030\362\373J\306\306\277\365\261\330\213\260\022\361?}I\030\205\331\312\332?Q\346b\374o \360\277\265Jv\036\312{\340\277\344@+\2434\030\312\2770\305!\024\207q\352\277\221\346\266\326\027\364\347\277zk\\\224\342%\363?\224\304r\307\016\231\377?\20601f\352\364\360\277\301Cz\356\300S\332\277\263\372\364\201\222b\304?S)\341[9\371\342\27798)%\353\227\356\277\301Cz\356\300S\332\277zk\\\224\342%\363?\355\032AG\327\001\327\277\020\030\362\373J\306\306\277\263\372\364\201\222b\304?\'R\032\003#K\346\277\267idJ\036j\315\277\301Cz\356\300S\332\277\301Cz\356\300S\332\277\301Cz\356\300S\332\2770\305!\024\207q\352\277{t\271\356\021H\236?W\257\335\032\314\252\330\277S)\341[9\371\342\277\221\346\266\326\027\364\347\277\013\352\264n\034\010\363\277\232k\206\201\266\017\007@n\202\367\216el\357\277.u\240wOX\316?kc\tc\021~\322?98)%\353\227\356\277\377\000Pi\237N\337\277\342\360\251\006\375\376\355?\036%\n\212\350\"\t@\377\000Pi\237N\337\277\255\246\333\234\202*\355?\020\030\362\373J\306\306\277zk\\\224\342%\363?\225l\263\225\252\245\335\277\326\237\346\004\2423\362\277\355\032AG\327\001\327\277\210s\257\305\263\315\343\277\203\336c\245FL\367?\267idJ\036j\315\277\340\001L\216\201,\n@zk\\\224\342%\363?{t\271\356\021H\236?\355\032AG\327\001\327\277(;\215\014\034\241\271\27798)%\353\227\356\277\007\230\347\255x_\371?\301Cz\356\300S\332\277\020\013\357\276\334\205\375?[Lg\320e\006\313?\221\346\266\326\027\364\347\277\301Cz\356\300S\332\277\210s\257\305\263\315\343\277\362\007L\231\250v\345\277Q\346b\374o \360\277\355\032AG\327\001\327\277\210s\257\305\263\315\343\277\263\372\364\201\222b\304?\232k\206\201\266\017\007@(;\215\014\034\241\271\277\301Cz\356\300S\332\277\267idJ\036j\315\277zk\\\224\342%\363?zk\\\224\342%\363?\221\346\266\326\027\364\347\277\342\360\251\006\375\376\355?e\017\360}\001F\353\277Q\346b\374o \360\277\232Y\276\347{\032\354\277\267idJ\036j\315\277\265Jv\036\312{\340\277\355\032AG\327\001\327\277\352\224D\210DP\341\277\020\013\357\276\334\205\375?Q\346b\374o \360\277\352\224D\210DP\341\277\020\013\357\276\334\205\375?\376$\340\234\0249\365?\301Cz\356\300S\332\277\210s\257\305\263\315\343\277\263\372\364\201\222b\304?zk\\\224\342%\363?(;\215\014\034\241\271\277(;\215\014\034\241\271\277\355\032AG\327\001\327\277\213Qk\266\252r\373?\210s\257\305\263\315\343\27798)%\353\227\356\277\032\362\007\240\355\257\323\277\355\032AG\327\001\327\277{t\271\356\021H\236?\355\032AG\327\001\327\277\326\237\346\004\2423\362\277(;\215\014\034\241\271\277{t\271\356\021H\236?\355\032AG\327\001\327\277\377\000Pi\237N\337\277\221\346\266\326\027\364\347\277\267idJ\036j\315\277\260]k\314\370\006\322\277\232Y\276\347{\032\354\277\355\032AG\327\001\327\277Q\346b\374o \360\277zk\\\224\342%\363?zk\\\224\342%\363?\221\346\266\326\027\364\347\277"
      }
    }
  }
}
node {
  name: "normalize_element/component_4"
  op: "Const"
  device: "/device:CPU:0"
  attr {
    key: "_output_shapes"
    value {
      list {
        shape {
          dim {
            size: 318
          }
        }
      }
    }
  }
  attr {
    key: "dtype"
    value {
      type: DT_INT64
    }
  }
  attr {
    key: "value"
    value {
      tensor {
        dtype: DT_INT64
        tensor_shape {
          dim {
            size: 318
          }
        }
        tensor_content: "F\000\000\000\000\000\000\000R\000\000\000\000\000\000\000K\000\000\000\000\000\000\000O\000\000\000\000\000\000\000P\000\000\000\000\000\000\000N\000\000\000\000\000\000\000N\000\000\000\000\000\000\000N\000\000\000\000\000\000\000F\000\000\000\000\000\000\000J\000\000\000\000\000\000\000Q\000\000\000\000\000\000\000J\000\000\000\000\000\000\000L\000\000\000\000\000\000\000L\000\000\000\000\000\000\000I\000\000\000\000\000\000\000N\000\000\000\000\000\000\000O\000\000\000\000\000\000\000P\000\000\000\000\000\000\000M\000\000\000\000\000\000\000P\000\000\000\000\000\000\000O\000\000\000\000\000\000\000N\000\000\000\000\000\000\000Q\000\000\000\000\000\000\000G\000\000\000\000\000\000\000I\000\000\000\000\000\000\000M\000\000\000\000\000\000\000K\000\000\000\000\000\000\000N\000\000\000\000\000\000\000H\000\000\000\000\000\000\000N\000\000\000\000\000\000\000R\000\000\000\000\000\000\000R\000\000\000\000\000\000\000M\000\000\000\000\000\000\000Q\000\000\000\000\000\000\000P\000\000\000\000\000\000\000H\000\000\000\000\000\000\000R\000\000\000\000\000\000\000I\000\000\000\000\000\000\000M\000\000\000\000\000\000\000K\000\000\000\000\000\000\000G\000\000\000\000\000\000\000I\000\000\000\000\000\000\000Q\000\000\000\000\000\000\000H\000\000\000\000\000\000\000M\000\000\000\000\000\000\000I\000\000\000\000\000\000\000N\000\000\000\000\000\000\000N\000\000\000\000\000\000\000G\000\000\000\000\000\000\000P\000\000\000\000\000\000\000Q\000\000\000\000\000\000\000G\000\000\000\000\000\000\000P\000\000\000\000\000\000\000H\000\000\000\000\000\000\000O\000\000\000\000\000\000\000Q\000\000\000\000\000\000\000M\000\000\000\000\000\000\000R\000\000\000\000\000\000\000F\000\000\000\000\000\000\000F\000\000\000\000\000\000\000G\000\000\000\000\000\000\000F\000\000\000\000\000\000\000N\000\000\000\000\000\000\000R\000\000\000\000\000\000\000G\000\000\000\000\000\000\000F\000\000\000\000\000\000\000I\000\000\000\000\000\000\000O\000\000\000\000\000\000\000N\000\000\000\000\000\000\000J\000\000\000\000\000\000\000P\000\000\000\000\000\000\000K\000\000\000\000\000\000\000K\000\000\000\000\000\000\000L\000\000\000\000\000\000\000P\000\000\000\000\000\000\000O\000\000\000\000\000\000\000L\000\000\000\000\000\000\000F\000\000\000\000\000\000\000O\000\000\000\000\000\000\000J\000\000\000\000\000\000\000I\000\000\000\000\000\000\000L\000\000\000\000\000\000\000H\000\000\000\000\000\000\000G\000\000\000\000\000\000\000O\000\000\000\000\000\000\000K\000\000\000\000\000\000\000Q\000\000\000\000\000\000\000I\000\000\000\000\000\000\000Q\000\000\000\000\000\000\000H\000\000\000\000\000\000\000M\000\000\000\000\000\000\000J\000\000\000\000\000\000\000G\000\000\000\000\000\000\000M\000\000\000\000\000\000\000O\000\000\000\000\000\000\000O\000\000\000\000\000\000\000N\000\000\000\000\000\000\000K\000\000\000\000\000\000\000L\000\000\000\000\000\000\000I\000\000\000\000\000\000\000J\000\000\000\000\000\000\000G\000\000\000\000\000\000\000H\000\000\000\000\000\000\000J\000\000\000\000\000\000\000I\000\000\000\000\000\000\000O\000\000\000\000\000\000\000K\000\000\000\000\000\000\000G\000\000\000\000\000\000\000L\000\000\000\000\000\000\000Q\000\000\000\000\000\000\000F\000\000\000\000\000\000\000J\000\000\000\000\000\000\000F\000\000\000\000\000\000\000N\000\000\000\000\000\000\000P\000\000\000\000\000\000\000Q\000\000\000\000\000\000\000L\000\000\000\000\000\000\000H\000\000\000\000\000\000\000G\000\000\000\000\000\000\000M\000\000\000\000\000\000\000F\000\000\000\000\000\000\000L\000\000\000\000\000\000\000I\000\000\000\000\000\000\000G\000\000\000\000\000\000\000I\000\000\000\000\000\000\000H\000\000\000\000\000\000\000I\000\000\000\000\000\000\000F\000\000\000\000\000\000\000F\000\000\000\000\000\000\000F\000\000\000\000\000\000\000N\000\000\000\000\000\000\000R\000\000\000\000\000\000\000N\000\000\000\000\000\000\000Q\000\000\000\000\000\000\000Q\000\000\000\000\000\000\000N\000\000\000\000\000\000\000I\000\000\000\000\000\000\000L\000\000\000\000\000\000\000K\000\000\000\000\000\000\000I\000\000\000\000\000\000\000L\000\000\000\000\000\000\000R\000\000\000\000\000\000\000R\000\000\000\000\000\000\000L\000\000\000\000\000\000\000R\000\000\000\000\000\000\000M\000\000\000\000\000\000\000L\000\000\000\000\000\000\000M\000\000\000\000\000\000\000R\000\000\000\000\000\000\000N\000\000\000\000\000\000\000H\000\000\000\000\000\000\000Q\000\000\000\000\000\000\000F\000\000\000\000\000\000\000L\000\000\000\000\000\000\000G\000\000\000\000\000\000\000G\000\000\000\000\000\000\000F\000\000\000\000\000\000\000L\000\000\000\000\000\000\000N\000\000\000\000\000\000\000H\000\000\000\000\000\000\000N\000\000\000\000\000\000\000L\000\000\000\000\000\000\000G\000\000\000\000\000\000\000Q\000\000\000\000\000\000\000H\000\000\000\000\000\000\000O\000\000\000\000\000\000\000P\000\000\000\000\000\000\000I\000\000\000\000\000\000\000F\000\000\000\000\000\000\000I\000\000\000\000\000\000\000I\000\000\000\000\000\000\000J\000\000\000\000\000\000\000R\000\000\000\000\000\000\000J\000\000\000\000\000\000\000F\000\000\000\000\000\000\000I\000\000\000\000\000\000\000J\000\000\000\000\000\000\000G\000\000\000\000\000\000\000P\000\000\000\000\000\000\000R\000\000\000\000\000\000\000K\000\000\000\000\000\000\000H\000\000\000\000\000\000\000P\000\000\000\000\000\000\000P\000\000\000\000\000\000\000Q\000\000\000\000\000\000\000H\000\000\000\000\000\000\000Q\000\000\000\000\000\000\000N\000\000\000\000\000\000\000K\000\000\000\000\000\000\000O\000\000\000\000\000\000\000K\000\000\000\000\000\000\000O\000\000\000\000\000\000\000M\000\000\000\000\000\000\000K\000\000\000\000\000\000\000M\000\000\000\000\000\000\000O\000\000\000\000\000\000\000J\000\000\000\000\000\000\000K\000\000\000\000\000\000\000R\000\000\000\000\000\000\000R\000\000\000\000\000\000\000K\000\000\000\000\000\000\000N\000\000\000\000\000\000\000M\000\000\000\000\000\000\000K\000\000\000\000\000\000\000K\000\000\000\000\000\000\000N\000\000\000\000\000\000\000P\000\000\000\000\000\000\000Q\000\000\000\000\000\000\000M\000\000\000\000\000\000\000P\000\000\000\000\000\000\000M\000\000\000\000\000\000\000H\000\000\000\000\000\000\000L\000\000\000\000\000\000\000R\000\000\000\000\000\000\000I\000\000\000\000\000\000\000O\000\000\000\000\000\000\000L\000\000\000\000\000\000\000P\000\000\000\000\000\000\000P\000\000\000\000\000\000\000F\000\000\000\000\000\000\000P\000\000\000\000\000\000\000M\000\000\000\000\000\000\000M\000\000\000\000\000\000\000O\000\000\000\000\000\000\000N\000\000\000\000\000\000\000K\000\000\000\000\000\000\000L\000\000\000\000\000\000\000G\000\000\000\000\000\000\000L\000\000\000\000\000\000\000L\000\000\000\000\000\000\000M\000\000\000\000\000\000\000L\000\000\000\000\000\000\000Q\000\000\000\000\000\000\000M\000\000\000\000\000\000\000F\000\000\000\000\000\000\000N\000\000\000\000\000\000\000F\000\000\000\000\000\000\000O\000\000\000\000\000\000\000J\000\000\000\000\000\000\000I\000\000\000\000\000\000\000H\000\000\000\000\000\000\000F\000\000\000\000\000\000\000N\000\000\000\000\000\000\000N\000\000\000\000\000\000\000J\000\000\000\000\000\000\000I\000\000\000\000\000\000\000R\000\000\000\000\000\000\000P\000\000\000\000\000\000\000G\000\000\000\000\000\000\000Q\000\000\000\000\000\000\000H\000\000\000\000\000\000\000J\000\000\000\000\000\000\000I\000\000\000\000\000\000\000F\000\000\000\000\000\000\000N\000\000\000\000\000\000\000O\000\000\000\000\000\000\000G\000\000\000\000\000\000\000P\000\000\000\000\000\000\000H\000\000\000\000\000\000\000G\000\000\000\000\000\000\000I\000\000\000\000\000\000\000R\000\000\000\000\000\000\000I\000\000\000\000\000\000\000I\000\000\000\000\000\000\000J\000\000\000\000\000\000\000M\000\000\000\000\000\000\000P\000\000\000\000\000\000\000R\000\000\000\000\000\000\000M\000\000\000\000\000\000\000M\000\000\000\000\000\000\000F\000\000\000\000\000\000\000G\000\000\000\000\000\000\000H\000\000\000\000\000\000\000K\000\000\000\000\000\000\000O\000\000\000\000\000\000\000L\000\000\000\000\000\000\000K\000\000\000\000\000\000\000L\000\000\000\000\000\000\000K\000\000\000\000\000\000\000O\000\000\000\000\000\000\000L\000\000\000\000\000\000\000L\000\000\000\000\000\000\000R\000\000\000\000\000\000\000P\000\000\000\000\000\000\000K\000\000\000\000\000\000\000G\000\000\000\000\000\000\000J\000\000\000\000\000\000\000M\000\000\000\000\000\000\000I\000\000\000\000\000\000\000O\000\000\000\000\000\000\000R\000\000\000\000\000\000\000O\000\000\000\000\000\000\000K\000\000\000\000\000\000\000G\000\000\000\000\000\000\000I\000\000\000\000\000\000\000M\000\000\000\000\000\000\000O\000\000\000\000\000\000\000F\000\000\000\000\000\000\000H\000\000\000\000\000\000\000P\000\000\000\000\000\000\000R\000\000\000\000\000\000\000F\000\000\000\000\000\000\000N\000\000\000\000\000\000\000L\000\000\000\000\000\000\000N\000\000\000\000\000\000\000L\000\000\000\000\000\000\000Q\000\000\000\000\000\000\000N\000\000\000\000\000\000\000R\000\000\000\000\000\000\000P\000\000\000\000\000\000\000I\000\000\000\000\000\000\000J\000\000\000\000\000\000\000N\000\000\000\000\000\000\000F\000\000\000\000\000\000\000Q\000\000\000\000\000\000\000I\000\000\000\000\000\000\000J\000\000\000\000\000\000\000J\000\000\000\000\000\000\000"
      }
    }
  }
}
node {
  name: "normalize_element/component_5"
  op: "Const"
  device: "/device:CPU:0"
  attr {
    key: "_output_shapes"
    value {
      list {
        shape {
          dim {
            size: 318
          }
        }
      }
    }
  }
  attr {
    key: "dtype"
    value {
      type: DT_INT64
    }
  }
  attr {
    key: "value"
    value {
      tensor {
        dtype: DT_INT64
        tensor_shape {
          dim {
            size: 318
          }
        }
        tensor_content: "\001\000\000\000\000\000\000\000\001\000\000\000\000\000\000\000\001\000\000\000\000\000\000\000\002\000\000\000\000\000\000\000\001\000\000\000\000\000\000\000\001\000\000\000\000\000\000\000\002\000\000\000\000\000\000\000\001\000\000\000\000\000\000\000\001\000\000\000\000\000\000\000\002\000\000\000\000\000\000\000\001\000\000\000\000\000\000\000\002\000\000\000\000\000\000\000\001\000\000\000\000\000\000\000\001\000\000\000\000\000\000\000\001\000\000\000\000\000\000\000\001\000\000\000\000\000\000\000\001\000\000\000\000\000\000\000\002\000\000\000\000\000\000\000\003\000\000\000\000\000\000\000\001\000\000\000\000\000\000\000\001\000\000\000\000\000\000\000\001\000\000\000\000\000\000\000\003\000\000\000\000\000\000\000\001\000\000\000\000\000\000\000\003\000\000\000\000\000\000\000\001\000\000\000\000\000\000\000\001\000\000\000\000\000\000\000\002\000\000\000\000\000\000\000\002\000\000\000\000\000\000\000\001\000\000\000\000\000\000\000\003\000\000\000\000\000\000\000\001\000\000\000\000\000\000\000\001\000\000\000\000\000\000\000\003\000\000\000\000\000\000\000\002\000\000\000\000\000\000\000\001\000\000\000\000\000\000\000\001\000\000\000\000\000\000\000\002\000\000\000\000\000\000\000\001\000\000\000\000\000\000\000\002\000\000\000\000\000\000\000\001\000\000\000\000\000\000\000\002\000\000\000\000\000\000\000\003\000\000\000\000\000\000\000\001\000\000\000\000\000\000\000\001\000\000\000\000\000\000\000\001\000\000\000\000\000\000\000\001\000\000\000\000\000\000\000\001\000\000\000\000\000\000\000\001\000\000\000\000\000\000\000\003\000\000\000\000\000\000\000\001\000\000\000\000\000\000\000\001\000\000\000\000\000\000\000\002\000\000\000\000\000\000\000\002\000\000\000\000\000\000\000\002\000\000\000\000\000\000\000\003\000\000\000\000\000\000\000\003\000\000\000\000\000\000\000\003\000\000\000\000\000\000\000\002\000\000\000\000\000\000\000\001\000\000\000\000\000\000\000\003\000\000\000\000\000\000\000\001\000\000\000\000\000\000\000\003\000\000\000\000\000\000\000\003\000\000\000\000\000\000\000\001\000\000\000\000\000\000\000\001\000\000\000\000\000\000\000\002\000\000\000\000\000\000\000\001\000\000\000\000\000\000\000\001\000\000\000\000\000\000\000\001\000\000\000\000\000\000\000\003\000\000\000\000\000\000\000\001\000\000\000\000\000\000\000\002\000\000\000\000\000\000\000\001\000\000\000\000\000\000\000\003\000\000\000\000\000\000\000\002\000\000\000\000\000\000\000\003\000\000\000\000\000\000\000\001\000\000\000\000\000\000\000\001\000\000\000\000\000\000\000\003\000\000\000\000\000\000\000\001\000\000\000\000\000\000\000\002\000\000\000\000\000\000\000\003\000\000\000\000\000\000\000\001\000\000\000\000\000\000\000\001\000\000\000\000\000\000\000\001\000\000\000\000\000\000\000\002\000\000\000\000\000\000\000\001\000\000\000\000\000\000\000\001\000\000\000\000\000\000\000\002\000\000\000\000\000\000\000\001\000\000\000\000\000\000\000\001\000\000\000\000\000\000\000\001\000\000\000\000\000\000\000\001\000\000\000\000\000\000\000\001\000\000\000\000\000\000\000\003\000\000\000\000\000\000\000\001\000\000\000\000\000\000\000\001\000\000\000\000\000\000\000\003\000\000\000\000\000\000\000\003\000\000\000\000\000\000\000\001\000\000\000\000\000\000\000\001\000\000\000\000\000\000\000\001\000\000\000\000\000\000\000\001\000\000\000\000\000\000\000\001\000\000\000\000\000\000\000\001\000\000\000\000\000\000\000\003\000\000\000\000\000\000\000\003\000\000\000\000\000\000\000\001\000\000\000\000\000\000\000\001\000\000\000\000\000\000\000\001\000\000\000\000\000\000\000\001\000\000\000\000\000\000\000\001\000\000\000\000\000\000\000\002\000\000\000\000\000\000\000\003\000\000\000\000\000\000\000\002\000\000\000\000\000\000\000\003\000\000\000\000\000\000\000\001\000\000\000\000\000\000\000\003\000\000\000\000\000\000\000\002\000\000\000\000\000\000\000\002\000\000\000\000\000\000\000\001\000\000\000\000\000\000\000\001\000\000\000\000\000\000\000\001\000\000\000\000\000\000\000\001\000\000\000\000\000\000\000\001\000\000\000\000\000\000\000\002\000\000\000\000\000\000\000\001\000\000\000\000\000\000\000\001\000\000\000\000\000\000\000\003\000\000\000\000\000\000\000\001\000\000\000\000\000\000\000\001\000\000\000\000\000\000\000\001\000\000\000\000\000\000\000\003\000\000\000\000\000\000\000\001\000\000\000\000\000\000\000\003\000\000\000\000\000\000\000\001\000\000\000\000\000\000\000\002\000\000\000\000\000\000\000\001\000\000\000\000\000\000\000\001\000\000\000\000\000\000\000\001\000\000\000\000\000\000\000\001\000\000\000\000\000\000\000\002\000\000\000\000\000\000\000\001\000\000\000\000\000\000\000\003\000\000\000\000\000\000\000\002\000\000\000\000\000\000\000\001\000\000\000\000\000\000\000\001\000\000\000\000\000\000\000\001\000\000\000\000\000\000\000\002\000\000\000\000\000\000\000\001\000\000\000\000\000\000\000\001\000\000\000\000\000\000\000\002\000\000\000\000\000\000\000\001\000\000\000\000\000\000\000\001\000\000\000\000\000\000\000\001\000\000\000\000\000\000\000\001\000\000\000\000\000\000\000\002\000\000\000\000\000\000\000\003\000\000\000\000\000\000\000\001\000\000\000\000\000\000\000\003\000\000\000\000\000\000\000\002\000\000\000\000\000\000\000\002\000\000\000\000\000\000\000\003\000\000\000\000\000\000\000\001\000\000\000\000\000\000\000\001\000\000\000\000\000\000\000\002\000\000\000\000\000\000\000\001\000\000\000\000\000\000\000\003\000\000\000\000\000\000\000\002\000\000\000\000\000\000\000\001\000\000\000\000\000\000\000\001\000\000\000\000\000\000\000\003\000\000\000\000\000\000\000\001\000\000\000\000\000\000\000\001\000\000\000\000\000\000\000\001\000\000\000\000\000\000\000\002\000\000\000\000\000\000\000\001\000\000\000\000\000\000\000\003\000\000\000\000\000\000\000\001\000\000\000\000\000\000\000\003\000\000\000\000\000\000\000\002\000\000\000\000\000\000\000\003\000\000\000\000\000\000\000\003\000\000\000\000\000\000\000\003\000\000\000\000\000\000\000\001\000\000\000\000\000\000\000\003\000\000\000\000\000\000\000\001\000\000\000\000\000\000\000\001\000\000\000\000\000\000\000\001\000\000\000\000\000\000\000\002\000\000\000\000\000\000\000\001\000\000\000\000\000\000\000\001\000\000\000\000\000\000\000\001\000\000\000\000\000\000\000\001\000\000\000\000\000\000\000\001\000\000\000\000\000\000\000\001\000\000\000\000\000\000\000\001\000\000\000\000\000\000\000\003\000\000\000\000\000\000\000\001\000\000\000\000\000\000\000\001\000\000\000\000\000\000\000\003\000\000\000\000\000\000\000\001\000\000\000\000\000\000\000\001\000\000\000\000\000\000\000\001\000\000\000\000\000\000\000\001\000\000\000\000\000\000\000\003\000\000\000\000\000\000\000\001\000\000\000\000\000\000\000\001\000\000\000\000\000\000\000\003\000\000\000\000\000\000\000\003\000\000\000\000\000\000\000\001\000\000\000\000\000\000\000\001\000\000\000\000\000\000\000\001\000\000\000\000\000\000\000\001\000\000\000\000\000\000\000\001\000\000\000\000\000\000\000\002\000\000\000\000\000\000\000\002\000\000\000\000\000\000\000\001\000\000\000\000\000\000\000\001\000\000\000\000\000\000\000\001\000\000\000\000\000\000\000\003\000\000\000\000\000\000\000\003\000\000\000\000\000\000\000\002\000\000\000\000\000\000\000\003\000\000\000\000\000\000\000\002\000\000\000\000\000\000\000\002\000\000\000\000\000\000\000\003\000\000\000\000\000\000\000\001\000\000\000\000\000\000\000\001\000\000\000\000\000\000\000\001\000\000\000\000\000\000\000\001\000\000\000\000\000\000\000\003\000\000\000\000\000\000\000\002\000\000\000\000\000\000\000\001\000\000\000\000\000\000\000\001\000\000\000\000\000\000\000\002\000\000\000\000\000\000\000\001\000\000\000\000\000\000\000\003\000\000\000\000\000\000\000\001\000\000\000\000\000\000\000\001\000\000\000\000\000\000\000\001\000\000\000\000\000\000\000\001\000\000\000\000\000\000\000\001\000\000\000\000\000\000\000\003\000\000\000\000\000\000\000\001\000\000\000\000\000\000\000\001\000\000\000\000\000\000\000\003\000\000\000\000\000\000\000\002\000\000\000\000\000\000\000\002\000\000\000\000\000\000\000\001\000\000\000\000\000\000\000\001\000\000\000\000\000\000\000\001\000\000\000\000\000\000\000\001\000\000\000\000\000\000\000\001\000\000\000\000\000\000\000\001\000\000\000\000\000\000\000\001\000\000\000\000\000\000\000\002\000\000\000\000\000\000\000\001\000\000\000\000\000\000\000\001\000\000\000\000\000\000\000\001\000\000\000\000\000\000\000\001\000\000\000\000\000\000\000\002\000\000\000\000\000\000\000\003\000\000\000\000\000\000\000\001\000\000\000\000\000\000\000\002\000\000\000\000\000\000\000\003\000\000\000\000\000\000\000\001\000\000\000\000\000\000\000\001\000\000\000\000\000\000\000\001\000\000\000\000\000\000\000\001\000\000\000\000\000\000\000\001\000\000\000\000\000\000\000\003\000\000\000\000\000\000\000\001\000\000\000\000\000\000\000\001\000\000\000\000\000\000\000\001\000\000\000\000\000\000\000\003\000\000\000\000\000\000\000\001\000\000\000\000\000\000\000\002\000\000\000\000\000\000\000\003\000\000\000\000\000\000\000\002\000\000\000\000\000\000\000\001\000\000\000\000\000\000\000\001\000\000\000\000\000\000\000\001\000\000\000\000\000\000\000\001\000\000\000\000\000\000\000\001\000\000\000\000\000\000\000\003\000\000\000\000\000\000\000\001\000\000\000\000\000\000\000\001\000\000\000\000\000\000\000\001\000\000\000\000\000\000\000\001\000\000\000\000\000\000\000\001\000\000\000\000\000\000\000\001\000\000\000\000\000\000\000\001\000\000\000\000\000\000\000\001\000\000\000\000\000\000\000\001\000\000\000\000\000\000\000\001\000\000\000\000\000\000\000\001\000\000\000\000\000\000\000\001\000\000\000\000\000\000\000\003\000\000\000\000\000\000\000\001\000\000\000\000\000\000\000\002\000\000\000\000\000\000\000\001\000\000\000\000\000\000\000\001\000\000\000\000\000\000\000\003\000\000\000\000\000\000\000\001\000\000\000\000\000\000\000\001\000\000\000\000\000\000\000\001\000\000\000\000\000\000\000\001\000\000\000\000\000\000\000\003\000\000\000\000\000\000\000\001\000\000\000\000\000\000\000\003\000\000\000\000\000\000\000\003\000\000\000\000\000\000\000\001\000\000\000\000\000\000\000\001\000\000\000\000\000\000\000\001\000\000\000\000\000\000\000\001\000\000\000\000\000\000\000\002\000\000\000\000\000\000\000"
      }
    }
  }
}
node {
  name: "normalize_element/component_6"
  op: "Const"
  device: "/device:CPU:0"
  attr {
    key: "_output_shapes"
    value {
      list {
        shape {
          dim {
            size: 318
          }
        }
      }
    }
  }
  attr {
    key: "dtype"
    value {
      type: DT_DOUBLE
    }
  }
  attr {
    key: "value"
    value {
      tensor {
        dtype: DT_DOUBLE
        tensor_shape {
          dim {
            size: 318
          }
        }
        tensor_content: "C\373\023\377\"\205\342?\271\204@\201L\021\322\277\224\315\255&\245\340\341?\370\343;d\206\212\363\277D\026>\026<\266\357\277\255v\225\202\231\241\315?\177\037\262\027\316\313\310\277\377\344\231\232\304\307\300?O\023C\273\033\037\334\277~W\177W,\025\360\277\314\314w\242l|\364\277\177#\365\"\217\350\350\277X}\036\250Xv\361\277\345\311\021w\\7\361?\315\254\323.\010\325\002@\271\204@\201L\021\322\277\010v{x\327u\360?\251 \016\241\361=\365\277a\350xh\367E\361\277\016\211\366:W\346\337?\021\262+\n\215\261\364?\326\251T\003\356\027\347?r\276-\3514\345\360\277\253\215\260; q\374?\2628S\343\207\217\357\277\371\177\210-\236Q\366?\262\224mKt\277\317?\356\n\242\016\306\013\341?\225\027\202l\247\245\352\277\266\335\2547wT\355?\033\220\245e\001\311\362\277m\241\324\363\273?\331\277\324\311\222\315\351\234\341?\271\034]\367\034\213\241\277\204\224\342ir\204\360\277\010\305/\304\215\323\344\277\3503\373HC\372\266?\350{\306xj\232\326\277\362\004\017\210\201?\371?\234\227\333\027xP\363\277Y\266_\370I\334\002@_\252b\325 \243\364\277\220M>\3656~\330\277\027\357\216\034\323 \365?\377\334\023\204B\216\320\277\265e\313\275~w\364?E\032\201!\375\322\337?\177{\314\177\272\373\350?\357X\271_\211\355\331?}8\364\r\301\303\361\277\345\237GN\'<\341?\354IM\373\233\336\330?\274\020ne\346\225\347\277\016\017\351\010\264-\230?V\354\362\226yU\357\277\326Q}\246\302\004\347\277\t\272\360\344\303)\363\277\3311?\334\306\177\354\277\251 \016\241\361=\365\277\013\'\223\177\362\\\372?N\245\003&\372o\371\277\273;\325\210\016\r\303\277\212\302\245j\234)\336\2775\321\264\246\3357\362\277\246\3556\355\344D\352\277\'\253\230YY\007\342?`\341q%\327\204\273\277y\230\\\230\364\223\356\277\313^8\rK\315\341?/\335\261\311\006q\000@\262\214\3474\362\205\337\277e\017V\033\266\025\316?A\271\272`\213\305\325\277\373\275\236\300t\364\362?\212Z\302\340l\243\255\277\334\340X<\036v\321?\261\233\207F\016P\362\277\206L\366D\226\370\313\277\013(0z\345\330\325\277:\300\342@\317\301\370\277\361\273\271\025\341\362\352?\320\"\377\203\024\340\314?\263\245\023\245G\306\347\277\016\310C\037\270\342\000@\3344\355\215\210l\341?\253\n\220\342]\352\361?\212\312+\201\036c\316?\270\\\242\020\302\361\220\277\023?\366\350\031\262\345\277\263s\265(Uu\237\277\334^\267\266\275g\361?\224\301\344\004b\212\261\277\022%K\245b\371\362\277%m\202\306\202d\345?\034\256\223\264y\236\325?$\373\377%\240\230\362\277\324\311\222\315\351\234\341?Z\273\026\024\236\025\375?\202\003\267X\223c\356\277\237\274\257\264[\373\306\277\254\333\345\263tV\366?U\321\310\177`$\342?P\217\205gf\034\366?\340\340$\217\357\272\377?\337\353\201\225Jh\342\277\313\210\0026\200\310\361?V@\207\350\343K\337\277\316\267x\267:\241\353\277\370\220&\346}\014\356\277\213z\332:u\211\276?)\276G\311\0073\303?\314\3219\201\217\021\357?^\010\231\013b\307\372?s\324\225!+\201\303\277Q,o+q_\344\277\242\317^$\n\'\350\277\271\034]\367\034\213\241\277\227&\356\320\224\264\353\277\331U\252+\346i\366\277\205\204\303\204\364A\363\277xJEG1\262\325\277i\207?6\242>\347?\271OB<\034\310\000@\256\214\033\342 A\361\277\310op\034\302e\002@\270t7\"l\206\365?\216\357\035E\223\021\363\277\375~\325\254\r\036\372?-F\266r\332\300\000@V\354\362\226yU\357\277.\002\247\257V/\365?\277D\304\354T\007\335\277\202\003\267X\223c\356\277$\373\377%\240\230\362\277\352\007\364\\\004\037\354\277,fZ\346>h\362\2779\364NN\333\352\356?\240\265\263\340Rn\365\277\264u\352\242\374\271\361?\314\000\344\257x\245\352?\257\260h\n\257\'\352?v\270\232b\360\030\351\277\2500-\206o\200\362\277Sd\010\276\240\355\351?\033\220\245e\001\311\362\277\026sLp\210#\333\2770`\307_\372\233\352\277\330\303\377F\245\320\371?\010\364\331\362vg\340\277\026{\322\206\n]\313?8\253\027\003\314\241\361?a\350xh\367E\361\277\002iAh\334\022\346\277\316h\304k\204C\367?*\010\034\017\n\370\333?\272\203\243\206Y\225\366?\367\237\306\367\231\326\360?\021\341\3258vE\360?6\353_\352\224\360\344\277i\202_0\356\245\373?_WMW\030%\357\277\007Xo\002\316\234\354\277\\|k\'\310B\365\277\345\035\246\310\306-\361\277\370\220&\346}\014\356\277-\314\023e\336\335\264\277\210_\245\264D$\355\2775\td\277\252}\310?0\217q\216\343/\346\277==\216:\336\177\334\277\371;\010\376\342A\003@7\024\215\030\327o\351?O\022\304\347\271\246\361\277\253\017R\301\200\177\334?\214.\3111i\344\372?\003N}\372+\004\000@\177G`r\256\322\362\277\363rN\035\243\356\353\277\315iafw\277\322\277\320\022\363V\020m\274\277\206t\244\237v\377\365\277#\250\352\247\227\032\355\2776\301\225\301_\365\364\277\317$9y\372\327\343\277,fZ\346>h\362\277%\025\253iWQ\345\277\350\375g\376\312\250\366\277\250{\240\010w\373|?`\367\372R\202\014\323?\013(0z\345\330\325\277\270\\\242\020\302\361\220\277s,m~V\224\323\277\317X\245\206\006\001\372?\216W\t\304m\013\000@\263\'\265*\250\324\367?\231\274\333\300\226j\350?M\201\230\326\332\205\357\277\343\317\n\247\t&\000@\237\305\322\305\320\260\362\277%\025\253iWQ\345\2772%_~\345\345\342?\177#\365\"\217\350\350\2773\302HB\360(\361\277\367\255\233\375\3339\236?\363\364\357\242\003\375\373?\356\n\242\016\306\013\341?\031\240\304J\177\013\360\277\313\006a\260\037\272\341\277\177#\365\"\217\350\350\277mM@\242QI\351\277B6|\3407;\352\277\361\273\271\025\341\362\352?(w\016%\274\332\372?M\201\230\326\332\205\357\277\337\367J\267\215\276\262?\212rT$\363O\336?\363rN\035\243\356\353\277\013\330\3363<\377\325?\026k\306Y\006\352\272\277\357}\243\202\nP\356?\202\236\207\034m\232\252?\n\320X\035\272\305\305\277\271\204@\201L\021\322\277\034\002(\006\344\224\345?\366\035%r9\310\340\277\352-z\304wqc\277\305\177\0131F\202\327?V\354\362\226yU\357\277\234\230Z\353\331\310\335\277\tk\036r|\310\335?g\276d\014\366\327\316\277\220c\307\"\342\005\260?\342\234\231\234eO\354\277\240\265\263\340Rn\365\277\332\243\301|\251K\377?\013\252\321\377E\347\365\277rk\030k,g\353\277\005\235\227\357J\204\333\277\216\357\035E\223\021\363\277\220\371\251\243\314\207\350\277@\251\261\001\253:\371?\200\225w\303q\264\373?DbLQ$s\277\277\250^:\272e\230\322?/\276\033\275\314\303\341\277\213>\350\026\347&\370?\\sH\026S\215\311\277\004}\215\322}\272\362\277\026\360\r\3604\231\357\277Q0\26262|\324?\030\260\305\010lJ\374?S\227\365\367J\236\305?\032\356\333\233B\355\370?\371\204h3R\352\341?\021\263\310\004\200-\320\277\326U\300\261\203!\327?Z\274\263\016\221\221\330\277\237{\33774\313\205\277Q\177f\202\350\331\370?\204\235\347SV6\313?\303<3\277LJ\360?\226\200\377\"\246\277\302\277T\335\2062\214F\356\277\301.F.\301\263\351\277 \367\322\240|3\343\277\277\360/\233\352\020\355\277\031\240\304J\177\013\360\277\237{\33774\313\205\277\202\003\267X\223c\356\277.\330\334\206!4\345?\311\033Bt\300\221\371?5\261\214b\177j\330?\0215j\212\340;\360\277\r\347J\230)\016\327?\250\334\2304\005\212\362?\2231C6\374\025\356?7\215\013\215\302\310\355\2778]\342\212w\274\367?\305L\036\367\233\321\353\277\313\334\226\207\352\276\361\277\234\227\333\027xP\363\2778-\271\210,\260\321?\371\375\346\247=C\346\277\300\261\204\256\024>\325\277k\222h\217\3160\330\277HX\033\205\315\233\004@\367\304\260\032\0339\365\277{)\210\251\323\264\360\277\034,\362.\031\220\365?9M\303\245\371y\372?\242#\363ut\035\330\277\357x\341\243\347\272\363\277} R\340\344/\270?S\275|\025\277|\365?\356P3I\007\264\311\277m\245\027\377|\\\351?\257}{\320\004w\336\277\026\2469\2522\324\346?\350\311\335\311-|\357\277p-\002\330U\304\356\277\342\360-\356\317E\334\277b\002$\254\256\376\343\277\023\227\315EE\305\345?\227\340\\\226S\014\303?\013\252\321\377E\347\365\277\255|\022\203@\266\324?\310\263a\270\264\363\354?\227\210\2059(\371\322?\000\225HT\033\356\260?B6|\3407;\352\277$\220c\323(\242\260\277\267\362\225\234\013x\345\277\367\363ZI\004\315\360\277W\255G\252\243\202\327\277\013\324\233({\342\345\277\233)\234\202V\241\340?\313\013#\217BO\374?\272\322W\322\017\363\352\277"
      }
    }
  }
}
node {
  name: "normalize_element/component_7"
  op: "Const"
  device: "/device:CPU:0"
  attr {
    key: "_output_shapes"
    value {
      list {
        shape {
          dim {
            size: 318
          }
        }
      }
    }
  }
  attr {
    key: "dtype"
    value {
      type: DT_DOUBLE
    }
  }
  attr {
    key: "value"
    value {
      tensor {
        dtype: DT_DOUBLE
        tensor_shape {
          dim {
            size: 318
          }
        }
        tensor_content: "\000\000\000\000\000\0001@\000\000\000\000\000\000?@\000\000\000\000\000\000.@fffff\346?@\315\314\314\314\314\014@@\000\000\000\000\000\2004@\232\231\231\231\231\2315@\315\314\314\314\314\3144@\000\000\000\000\000\0005@\000\000\000\000\000\0008@\000\000\000\000\000\200C@\000\000\000\000\000\000:@\000\000\000\000\000\000=@\000\000\000\000\000\000*@\000\000\000\000\000\000(@\232\231\231\231\231\0319@3333332@33333sD@\000\000\000\000\000\200?@\232\231\231\231\231\0313@\000\000\000\000\000\000/@3333334@fffff&@@\000\000\000\000\000\000,@\000\000\000\000\000\0002@\000\000\000\000\000\000/@\000\000\000\000\000\000*@3333330@\000\000\000\000\000\0007@ffffff3@\000\000\000\000\000\000@@\000\000\000\000\000\000<@\000\000\000\000\000\2004@3333338@fffff&F@\000\000\000\000\000\0004@\000\000\000\000\000\0007@\000\000\000\000\000\0008@\000\000\000\000\000\000.@\000\000\000\000\000\000=@\000\000\000\000\000\000(@\000\000\000\000\000\000=@\232\231\231\231\231\231?@\000\000\000\000\000\000,@\000\000\000\000\000\2008@\000\000\000\000\000\000,@\232\231\231\231\231\2314@\232\231\231\231\231\2312@\000\000\000\000\000\0003@\232\231\231\231\231\231B@ffffff6@\000\000\000\000\000\0002@33333\263E@\000\000\000\000\000\0005@fffff\246B@333333@@\000\000\000\000\000\300@@\000\000\000\000\000\000B@\000\000\000\000\000\000:@\000\000\000\000\000\000,@\000\000\000\000\000\200A@\000\000\000\000\000\0006@\000\000\000\000\000\200;@\000\000\000\000\000\000C@\000\000\000\000\000\000<@\000\000\000\000\000\0002@\000\000\000\000\000\0003@\000\000\000\000\000@A@\000\000\000\000\000\2004@\000\000\000\000\000\000*@\315\314\314\314\314L?@\000\000\000\000\000\000.@\000\000\000\000\000\0009@\000\000\000\000\000\000/@\232\231\231\231\231Y@@333333;@\000\000\000\000\000\000@@\000\000\000\000\000\0002@ffffff<@\000\000\000\000\000\000?@\000\000\000\000\000\000,@\000\000\000\000\000\0004@\000\000\000\000\000\0003@\000\000\000\000\000\000*@fffff\3467@\000\000\000\000\000\0001@33333\263>@\000\000\000\000\000\0002@\000\000\000\000\000\000>@\000\000\000\000\000\0002@\000\000\000\000\000\2001@\000\000\000\000\000\0003@\000\000\000\000\000\000:@\000\000\000\000\000\2002@\000\000\000\000\000\2005@\315\314\314\314\314\014A@3333333@\000\000\000\000\000\0000@\000\000\000\000\000\000<@\000\000\000\000\000\0004@\000\000\000\000\000\0000@\000\000\000\000\000\0000@\000\000\000\000\000\000,@\000\000\000\000\000\000,@\000\000\000\000\000\0005@\000\000\000\000\000\0007@\000\000\000\000\000\0008@\000\000\000\000\000\0009@\000\000\000\000\000\2008@3333334@\000\000\000\000\000\000,@\000\000\000\000\000\0000@\000\000\000\000\000\000$@\315\314\314\314\314L4@33333\2637@\000\000\000\000\000@A@\000\000\000\000\000\0003@\000\000\000\000\000\0005@\000\000\000\000\000\000?@\000\000\000\000\000\000=@\000\000\000\000\000\0009@\000\000\000\000\000\0002@\000\000\000\000\000\000*@\000\000\000\000\000\0009@\000\000\000\000\000\000(@\000\000\000\000\000\000*@\000\000\000\000\000\000:@\000\000\000\000\000\000.@\000\000\000\000\000\000\"@\000\000\000\000\000\000;@\000\000\000\000\000\2001@\000\000\000\000\000\000?@\000\000\000\000\000\000>@\000\000\000\000\000\200B@\232\231\231\231\231YA@ffffff@@\000\000\000\000\000\000.@\000\000\000\000\000\200=@\000\000\000\000\000\0000@\000\000\000\000\000\000&@\000\000\000\000\000\0004@\000\000\000\000\000\000@@\000\000\000\000\000\000B@\000\000\000\000\000\2002@\000\000\000\000\000\000C@\000\000\000\000\000\2005@\000\000\000\000\000\000:@\000\000\000\000\000\000/@\000\000\000\000\000\000=@\000\000\000\000\000\0001@\000\000\000\000\000\000.@333333A@\000\000\000\000\000\0009@\000\000\000\000\000\0000@\000\000\000\000\000\0001@\000\000\000\000\000\000,@\000\000\000\000\000\000.@\000\000\000\000\000\2000@fffff\3467@\000\000\000\000\000\000*@\000\000\000\000\000\200=@\000\000\000\000\000\000;@\000\000\000\000\000\000;@\232\231\231\231\231\331B@\000\000\000\000\000\000<@\315\314\314\314\314L6@fffff&A@\000\000\000\000\000\0002@\000\000\000\000\000\0008@\000\000\000\000\000\0004@\000\000\000\000\000\000&@\000\000\000\000\000\0000@\000\000\000\000\000\200B@\000\000\000\000\000\000.@\000\000\000\000\000\000&@\000\000\000\000\000\000*@\000\000\000\000\000\000:@\000\000\000\000\000\0007@\315\314\314\314\314\314=@\000\000\000\000\000\0008@\000\000\000\000\000\200@@\000\000\000\000\000\000:@\315\314\314\314\314LF@\000\000\000\000\000\200B@\315\314\314\314\314\014A@\000\000\000\000\000\0006@\315\314\314\314\314\214A@3333334@\000\000\000\000\000\0003@ffffff;@\000\000\000\000\000\0006@\315\314\314\314\314\314:@\000\000\000\000\000\0000@\000\000\000\000\000\000,@\000\000\000\000\000\0000@3333333@\000\000\000\000\000\000<@\000\000\000\000\000\0000@\000\000\000\000\000\000?@\000\000\000\000\000\000A@\000\000\000\000\000\0002@333333;@\000\000\000\000\000\200>@\000\000\000\000\000\0002@\000\000\000\000\000\000.@\232\231\231\231\231\0312@\315\314\314\314\314LG@333333;@\000\000\000\000\000\2009@333333@@\000\000\000\000\000\000:@\000\000\000\000\000\0001@\000\000\000\000\000\2000@\000\000\000\000\000\000C@\000\000\000\000\000\0002@\232\231\231\231\231\2314@\000\000\000\000\000\0009@\000\000\000\000\000\000>@ffffff:@\000\000\000\000\000\000.@\315\314\314\314\314L8@\000\000\000\000\000\0006@\000\000\000\000\000\2005@ffffff9@\232\231\231\231\231\0315@\000\000\000\000\000\0007@\000\000\000\000\000\0003@\000\000\000\000\000\000;@\000\000\000\000\000\200:@\000\000\000\000\000\0006@\000\000\000\000\000\2009@\000\000\000\000\000\0008@\232\231\231\231\231\331@@\000\000\000\000\000\000B@\000\000\000\000\000\000$@\315\314\314\314\314\014B@\000\000\000\000\000\000:@\315\314\314\314\314\314<@\000\000\000\000\000\000?@\000\000\000\000\000\0003@\000\000\000\000\000\000*@\000\000\000\000\000\000,@\315\314\314\314\314\3147@\232\231\231\231\231\0312@\000\000\000\000\000\0008@\000\000\000\000\000\000,@\000\000\000\000\000\000;@\315\314\314\314\314\014C@\000\000\000\000\000\000<@\232\231\231\231\231\031<@\000\000\000\000\000\000(@\000\000\000\000\000\0004@\000\000\000\000\000\0000@\000\000\000\000\000\0000@3333337@3333334@\000\000\000\000\000\0003@333333B@\000\000\000\000\000\000*@\000\000\000\000\000\0002@\000\000\000\000\000\000*@\000\000\000\000\000\0006@\000\000\000\000\000\0008@\000\000\000\000\000\0004@\000\000\000\000\000\000:@\000\000\000\000\000\200>@ffffffD@\000\000\000\000\000\000;@\000\000\000\000\000\000>@\000\000\000\000\000\2001@\000\000\000\000\000\000,@\000\000\000\000\000\0003@\000\000\000\000\000\000;@\000\000\000\000\000\0003@\000\000\000\000\000\2002@\000\000\000\000\000\000*@\000\000\000\000\000\000=@\000\000\000\000\000\2001@\000\000\000\000\000\0009@\315\314\314\314\314\314?@\000\000\000\000\000\000=@\000\000\000\000\000\2001@\000\000\000\000\000\000B@\000\000\000\000\000\000<@\000\000\000\000\000\0007@\000\000\000\000\000\000*@\000\000\000\000\000\000@@\000\000\000\000\000\300@@\000\000\000\000\000\000*@fffff\3460@\000\000\000\000\000\000;@\232\231\231\231\231\331A@\000\000\000\000\000\0005@\000\000\000\000\000\000,@\000\000\000\000\000\0002@\000\000\000\000\000\0003@\000\000\000\000\000\300@@\000\000\000\000\000\000.@\000\000\000\000\000\0009@fffff\346@@\000\000\000\000\000\000:@\000\000\000\000\000\0008@3333333@\000\000\000\000\000\2006@\315\314\314\314\314\014B@\000\000\000\000\000\0006@\232\231\231\231\231\231:@ffffff3@\000\000\000\000\000\000C@\232\231\231\231\231\031@@\000\000\000\000\000\0007@\000\000\000\000\000\000:@33333\263C@\000\000\000\000\000\0005@fffff\346=@\000\000\000\000\000\000.@\000\000\000\000\000\000,@\000\000\000\000\000\000:@"
      }
    }
  }
}
node {
  name: "TensorSliceDataset"
  op: "TensorSliceDataset"
  input: "normalize_element/component_0"
  input: "normalize_element/component_1"
  input: "normalize_element/component_2"
  input: "normalize_element/component_3"
  input: "normalize_element/component_4"
  input: "normalize_element/component_5"
  input: "normalize_element/component_6"
  input: "normalize_element/component_7"
  device: "/device:CPU:0"
  attr {
    key: "Toutput_types"
    value {
      list {
        type: DT_DOUBLE
        type: DT_DOUBLE
        type: DT_DOUBLE
        type: DT_DOUBLE
        type: DT_INT64
        type: DT_INT64
        type: DT_DOUBLE
        type: DT_DOUBLE
      }
    }
  }
  attr {
    key: "_output_shapes"
    value {
      list {
        shape {
        }
      }
    }
  }
  attr {
    key: "is_files"
    value {
      b: false
    }
  }
  attr {
    key: "metadata"
    value {
      s: ""
    }
  }
  attr {
    key: "output_shapes"
    value {
      list {
        shape {
        }
        shape {
        }
        shape {
        }
        shape {
        }
        shape {
        }
        shape {
        }
        shape {
        }
        shape {
        }
      }
    }
  }
}
node {
  name: "buffer_size"
  op: "Const"
  device: "/device:CPU:0"
  attr {
    key: "_output_shapes"
    value {
      list {
        shape {
        }
      }
    }
  }
  attr {
    key: "dtype"
    value {
      type: DT_INT64
    }
  }
  attr {
    key: "value"
    value {
      tensor {
        dtype: DT_INT64
        tensor_shape {
        }
        int64_val: 1000
      }
    }
  }
}
node {
  name: "seed"
  op: "Const"
  device: "/device:CPU:0"
  attr {
    key: "_output_shapes"
    value {
      list {
        shape {
        }
      }
    }
  }
  attr {
    key: "dtype"
    value {
      type: DT_INT64
    }
  }
  attr {
    key: "value"
    value {
      tensor {
        dtype: DT_INT64
        tensor_shape {
        }
        int64_val: 0
      }
    }
  }
}
node {
  name: "seed2"
  op: "Const"
  device: "/device:CPU:0"
  attr {
    key: "_output_shapes"
    value {
      list {
        shape {
        }
      }
    }
  }
  attr {
    key: "dtype"
    value {
      type: DT_INT64
    }
  }
  attr {
    key: "value"
    value {
      tensor {
        dtype: DT_INT64
        tensor_shape {
        }
        int64_val: 0
      }
    }
  }
}
node {
  name: "ShuffleDataset"
  op: "ShuffleDataset"
  input: "TensorSliceDataset"
  input: "buffer_size"
  input: "seed"
  input: "seed2"
  device: "/device:CPU:0"
  attr {
    key: "_output_shapes"
    value {
      list {
        shape {
        }
      }
    }
  }
  attr {
    key: "metadata"
    value {
      s: ""
    }
  }
  attr {
    key: "output_shapes"
    value {
      list {
        shape {
        }
        shape {
        }
        shape {
        }
        shape {
        }
        shape {
        }
        shape {
        }
        shape {
        }
        shape {
        }
      }
    }
  }
  attr {
    key: "output_types"
    value {
      list {
        type: DT_DOUBLE
        type: DT_DOUBLE
        type: DT_DOUBLE
        type: DT_DOUBLE
        type: DT_INT64
        type: DT_INT64
        type: DT_DOUBLE
        type: DT_DOUBLE
      }
    }
  }
  attr {
    key: "reshuffle_each_iteration"
    value {
      b: true
    }
  }
}
node {
  name: "count"
  op: "Const"
  device: "/device:CPU:0"
  attr {
    key: "_output_shapes"
    value {
      list {
        shape {
        }
      }
    }
  }
  attr {
    key: "dtype"
    value {
      type: DT_INT64
    }
  }
  attr {
    key: "value"
    value {
      tensor {
        dtype: DT_INT64
        tensor_shape {
        }
        int64_val: -1
      }
    }
  }
}
node {
  name: "RepeatDataset"
  op: "RepeatDataset"
  input: "ShuffleDataset"
  input: "count"
  device: "/device:CPU:0"
  attr {
    key: "_output_shapes"
    value {
      list {
        shape {
        }
      }
    }
  }
  attr {
    key: "metadata"
    value {
      s: ""
    }
  }
  attr {
    key: "output_shapes"
    value {
      list {
        shape {
        }
        shape {
        }
        shape {
        }
        shape {
        }
        shape {
        }
        shape {
        }
        shape {
        }
        shape {
        }
      }
    }
  }
  attr {
    key: "output_types"
    value {
      list {
        type: DT_DOUBLE
        type: DT_DOUBLE
        type: DT_DOUBLE
        type: DT_DOUBLE
        type: DT_INT64
        type: DT_INT64
        type: DT_DOUBLE
        type: DT_DOUBLE
      }
    }
  }
}
node {
  name: "batch_size"
  op: "Const"
  device: "/device:CPU:0"
  attr {
    key: "_output_shapes"
    value {
      list {
        shape {
        }
      }
    }
  }
  attr {
    key: "dtype"
    value {
      type: DT_INT64
    }
  }
  attr {
    key: "value"
    value {
      tensor {
        dtype: DT_INT64
        tensor_shape {
        }
        int64_val: 8
      }
    }
  }
}
node {
  name: "drop_remainder"
  op: "Const"
  device: "/device:CPU:0"
  attr {
    key: "_output_shapes"
    value {
      list {
        shape {
        }
      }
    }
  }
  attr {
    key: "dtype"
    value {
      type: DT_BOOL
    }
  }
  attr {
    key: "value"
    value {
      tensor {
        dtype: DT_BOOL
        tensor_shape {
        }
        bool_val: false
      }
    }
  }
}
node {
  name: "BatchDatasetV2"
  op: "BatchDatasetV2"
  input: "RepeatDataset"
  input: "batch_size"
  input: "drop_remainder"
  device: "/device:CPU:0"
  attr {
    key: "_output_shapes"
    value {
      list {
        shape {
        }
      }
    }
  }
  attr {
    key: "metadata"
    value {
      s: ""
    }
  }
  attr {
    key: "output_shapes"
    value {
      list {
        shape {
          dim {
            size: -1
          }
        }
        shape {
          dim {
            size: -1
          }
        }
        shape {
          dim {
            size: -1
          }
        }
        shape {
          dim {
            size: -1
          }
        }
        shape {
          dim {
            size: -1
          }
        }
        shape {
          dim {
            size: -1
          }
        }
        shape {
          dim {
            size: -1
          }
        }
        shape {
          dim {
            size: -1
          }
        }
      }
    }
  }
  attr {
    key: "output_types"
    value {
      list {
        type: DT_DOUBLE
        type: DT_DOUBLE
        type: DT_DOUBLE
        type: DT_DOUBLE
        type: DT_INT64
        type: DT_INT64
        type: DT_DOUBLE
        type: DT_DOUBLE
      }
    }
  }
  attr {
    key: "parallel_copy"
    value {
      b: false
    }
  }
}
node {
  name: "IteratorV2"
  op: "IteratorV2"
  device: "/device:CPU:0"
  attr {
    key: "_class"
    value {
      list {
        s: "loc:@BatchDatasetV2"
      }
    }
  }
  attr {
    key: "_output_shapes"
    value {
      list {
        shape {
        }
      }
    }
  }
  attr {
    key: "container"
    value {
      s: ""
    }
  }
  attr {
    key: "output_shapes"
    value {
      list {
        shape {
          dim {
            size: -1
          }
        }
        shape {
          dim {
            size: -1
          }
        }
        shape {
          dim {
            size: -1
          }
        }
        shape {
          dim {
            size: -1
          }
        }
        shape {
          dim {
            size: -1
          }
        }
        shape {
          dim {
            size: -1
          }
        }
        shape {
          dim {
            size: -1
          }
        }
        shape {
          dim {
            size: -1
          }
        }
      }
    }
  }
  attr {
    key: "output_types"
    value {
      list {
        type: DT_DOUBLE
        type: DT_DOUBLE
        type: DT_DOUBLE
        type: DT_DOUBLE
        type: DT_INT64
        type: DT_INT64
        type: DT_DOUBLE
        type: DT_DOUBLE
      }
    }
  }
  attr {
    key: "shared_name"
    value {
      s: ""
    }
  }
}
node {
  name: "MakeIterator"
  op: "MakeIterator"
  input: "BatchDatasetV2"
  input: "IteratorV2"
  device: "/device:CPU:0"
  attr {
    key: "_class"
    value {
      list {
        s: "loc:@BatchDatasetV2"
      }
    }
  }
}
node {
  name: "IteratorToStringHandle"
  op: "IteratorToStringHandle"
  input: "IteratorV2"
  device: "/device:CPU:0"
  attr {
    key: "_class"
    value {
      list {
        s: "loc:@BatchDatasetV2"
      }
    }
  }
  attr {
    key: "_output_shapes"
    value {
      list {
        shape {
        }
      }
    }
  }
}
node {
  name: "IteratorGetNext"
  op: "IteratorGetNext"
  input: "IteratorV2"
  device: "/device:CPU:0"
  attr {
    key: "_class"
    value {
      list {
        s: "loc:@BatchDatasetV2"
      }
    }
  }
  attr {
    key: "_output_shapes"
    value {
      list {
        shape {
          dim {
            size: -1
          }
        }
        shape {
          dim {
            size: -1
          }
        }
        shape {
          dim {
            size: -1
          }
        }
        shape {
          dim {
            size: -1
          }
        }
        shape {
          dim {
            size: -1
          }
        }
        shape {
          dim {
            size: -1
          }
        }
        shape {
          dim {
            size: -1
          }
        }
        shape {
          dim {
            size: -1
          }
        }
      }
    }
  }
  attr {
    key: "output_shapes"
    value {
      list {
        shape {
          dim {
            size: -1
          }
        }
        shape {
          dim {
            size: -1
          }
        }
        shape {
          dim {
            size: -1
          }
        }
        shape {
          dim {
            size: -1
          }
        }
        shape {
          dim {
            size: -1
          }
        }
        shape {
          dim {
            size: -1
          }
        }
        shape {
          dim {
            size: -1
          }
        }
        shape {
          dim {
            size: -1
          }
        }
      }
    }
  }
  attr {
    key: "output_types"
    value {
      list {
        type: DT_DOUBLE
        type: DT_DOUBLE
        type: DT_DOUBLE
        type: DT_DOUBLE
        type: DT_INT64
        type: DT_INT64
        type: DT_DOUBLE
        type: DT_DOUBLE
      }
    }
  }
}
node {
  name: "dnn/Cast"
  op: "Cast"
  input: "IteratorGetNext"
  attr {
    key: "DstT"
    value {
      type: DT_FLOAT
    }
  }
  attr {
    key: "SrcT"
    value {
      type: DT_DOUBLE
    }
  }
  attr {
    key: "Truncate"
    value {
      b: false
    }
  }
  attr {
    key: "_output_shapes"
    value {
      list {
        shape {
          dim {
            size: -1
          }
        }
      }
    }
  }
}
node {
  name: "dnn/Cast_1"
  op: "Cast"
  input: "IteratorGetNext:1"
  attr {
    key: "DstT"
    value {
      type: DT_FLOAT
    }
  }
  attr {
    key: "SrcT"
    value {
      type: DT_DOUBLE
    }
  }
  attr {
    key: "Truncate"
    value {
      b: false
    }
  }
  attr {
    key: "_output_shapes"
    value {
      list {
        shape {
          dim {
            size: -1
          }
        }
      }
    }
  }
}
node {
  name: "dnn/Cast_2"
  op: "Cast"
  input: "IteratorGetNext:2"
  attr {
    key: "DstT"
    value {
      type: DT_FLOAT
    }
  }
  attr {
    key: "SrcT"
    value {
      type: DT_DOUBLE
    }
  }
  attr {
    key: "Truncate"
    value {
      b: false
    }
  }
  attr {
    key: "_output_shapes"
    value {
      list {
        shape {
          dim {
            size: -1
          }
        }
      }
    }
  }
}
node {
  name: "dnn/Cast_3"
  op: "Cast"
  input: "IteratorGetNext:3"
  attr {
    key: "DstT"
    value {
      type: DT_FLOAT
    }
  }
  attr {
    key: "SrcT"
    value {
      type: DT_DOUBLE
    }
  }
  attr {
    key: "Truncate"
    value {
      b: false
    }
  }
  attr {
    key: "_output_shapes"
    value {
      list {
        shape {
          dim {
            size: -1
          }
        }
      }
    }
  }
}
node {
  name: "dnn/Cast_4"
  op: "Cast"
  input: "IteratorGetNext:6"
  attr {
    key: "DstT"
    value {
      type: DT_FLOAT
    }
  }
  attr {
    key: "SrcT"
    value {
      type: DT_DOUBLE
    }
  }
  attr {
    key: "Truncate"
    value {
      b: false
    }
  }
  attr {
    key: "_output_shapes"
    value {
      list {
        shape {
          dim {
            size: -1
          }
        }
      }
    }
  }
}
node {
  name: "dnn/input_from_feature_columns/input_layer/Acceleration_1/ExpandDims/dim"
  op: "Const"
  attr {
    key: "_output_shapes"
    value {
      list {
        shape {
        }
      }
    }
  }
  attr {
    key: "dtype"
    value {
      type: DT_INT32
    }
  }
  attr {
    key: "value"
    value {
      tensor {
        dtype: DT_INT32
        tensor_shape {
        }
        int_val: -1
      }
    }
  }
}
node {
  name: "dnn/input_from_feature_columns/input_layer/Acceleration_1/ExpandDims"
  op: "ExpandDims"
  input: "dnn/Cast"
  input: "dnn/input_from_feature_columns/input_layer/Acceleration_1/ExpandDims/dim"
  attr {
    key: "T"
    value {
      type: DT_FLOAT
    }
  }
  attr {
    key: "Tdim"
    value {
      type: DT_INT32
    }
  }
  attr {
    key: "_output_shapes"
    value {
      list {
        shape {
          dim {
            size: -1
          }
          dim {
            size: 1
          }
        }
      }
    }
  }
}
node {
  name: "dnn/input_from_feature_columns/input_layer/Acceleration_1/Shape"
  op: "Shape"
  input: "dnn/input_from_feature_columns/input_layer/Acceleration_1/ExpandDims"
  attr {
    key: "T"
    value {
      type: DT_FLOAT
    }
  }
  attr {
    key: "_output_shapes"
    value {
      list {
        shape {
          dim {
            size: 2
          }
        }
      }
    }
  }
  attr {
    key: "out_type"
    value {
      type: DT_INT32
    }
  }
}
node {
  name: "dnn/input_from_feature_columns/input_layer/Acceleration_1/strided_slice/stack"
  op: "Const"
  attr {
    key: "_output_shapes"
    value {
      list {
        shape {
          dim {
            size: 1
          }
        }
      }
    }
  }
  attr {
    key: "dtype"
    value {
      type: DT_INT32
    }
  }
  attr {
    key: "value"
    value {
      tensor {
        dtype: DT_INT32
        tensor_shape {
          dim {
            size: 1
          }
        }
        int_val: 0
      }
    }
  }
}
node {
  name: "dnn/input_from_feature_columns/input_layer/Acceleration_1/strided_slice/stack_1"
  op: "Const"
  attr {
    key: "_output_shapes"
    value {
      list {
        shape {
          dim {
            size: 1
          }
        }
      }
    }
  }
  attr {
    key: "dtype"
    value {
      type: DT_INT32
    }
  }
  attr {
    key: "value"
    value {
      tensor {
        dtype: DT_INT32
        tensor_shape {
          dim {
            size: 1
          }
        }
        int_val: 1
      }
    }
  }
}
node {
  name: "dnn/input_from_feature_columns/input_layer/Acceleration_1/strided_slice/stack_2"
  op: "Const"
  attr {
    key: "_output_shapes"
    value {
      list {
        shape {
          dim {
            size: 1
          }
        }
      }
    }
  }
  attr {
    key: "dtype"
    value {
      type: DT_INT32
    }
  }
  attr {
    key: "value"
    value {
      tensor {
        dtype: DT_INT32
        tensor_shape {
          dim {
            size: 1
          }
        }
        int_val: 1
      }
    }
  }
}
node {
  name: "dnn/input_from_feature_columns/input_layer/Acceleration_1/strided_slice"
  op: "StridedSlice"
  input: "dnn/input_from_feature_columns/input_layer/Acceleration_1/Shape"
  input: "dnn/input_from_feature_columns/input_layer/Acceleration_1/strided_slice/stack"
  input: "dnn/input_from_feature_columns/input_layer/Acceleration_1/strided_slice/stack_1"
  input: "dnn/input_from_feature_columns/input_layer/Acceleration_1/strided_slice/stack_2"
  attr {
    key: "Index"
    value {
      type: DT_INT32
    }
  }
  attr {
    key: "T"
    value {
      type: DT_INT32
    }
  }
  attr {
    key: "_output_shapes"
    value {
      list {
        shape {
        }
      }
    }
  }
  attr {
    key: "begin_mask"
    value {
      i: 0
    }
  }
  attr {
    key: "ellipsis_mask"
    value {
      i: 0
    }
  }
  attr {
    key: "end_mask"
    value {
      i: 0
    }
  }
  attr {
    key: "new_axis_mask"
    value {
      i: 0
    }
  }
  attr {
    key: "shrink_axis_mask"
    value {
      i: 1
    }
  }
}
node {
  name: "dnn/input_from_feature_columns/input_layer/Acceleration_1/Reshape/shape/1"
  op: "Const"
  attr {
    key: "_output_shapes"
    value {
      list {
        shape {
        }
      }
    }
  }
  attr {
    key: "dtype"
    value {
      type: DT_INT32
    }
  }
  attr {
    key: "value"
    value {
      tensor {
        dtype: DT_INT32
        tensor_shape {
        }
        int_val: 1
      }
    }
  }
}
node {
  name: "dnn/input_from_feature_columns/input_layer/Acceleration_1/Reshape/shape"
  op: "Pack"
  input: "dnn/input_from_feature_columns/input_layer/Acceleration_1/strided_slice"
  input: "dnn/input_from_feature_columns/input_layer/Acceleration_1/Reshape/shape/1"
  attr {
    key: "N"
    value {
      i: 2
    }
  }
  attr {
    key: "T"
    value {
      type: DT_INT32
    }
  }
  attr {
    key: "_output_shapes"
    value {
      list {
        shape {
          dim {
            size: 2
          }
        }
      }
    }
  }
  attr {
    key: "axis"
    value {
      i: 0
    }
  }
}
node {
  name: "dnn/input_from_feature_columns/input_layer/Acceleration_1/Reshape"
  op: "Reshape"
  input: "dnn/input_from_feature_columns/input_layer/Acceleration_1/ExpandDims"
  input: "dnn/input_from_feature_columns/input_layer/Acceleration_1/Reshape/shape"
  attr {
    key: "T"
    value {
      type: DT_FLOAT
    }
  }
  attr {
    key: "Tshape"
    value {
      type: DT_INT32
    }
  }
  attr {
    key: "_output_shapes"
    value {
      list {
        shape {
          dim {
            size: -1
          }
          dim {
            size: 1
          }
        }
      }
    }
  }
}
node {
  name: "dnn/input_from_feature_columns/input_layer/Cylinders_1/ExpandDims/dim"
  op: "Const"
  attr {
    key: "_output_shapes"
    value {
      list {
        shape {
        }
      }
    }
  }
  attr {
    key: "dtype"
    value {
      type: DT_INT32
    }
  }
  attr {
    key: "value"
    value {
      tensor {
        dtype: DT_INT32
        tensor_shape {
        }
        int_val: -1
      }
    }
  }
}
node {
  name: "dnn/input_from_feature_columns/input_layer/Cylinders_1/ExpandDims"
  op: "ExpandDims"
  input: "dnn/Cast_1"
  input: "dnn/input_from_feature_columns/input_layer/Cylinders_1/ExpandDims/dim"
  attr {
    key: "T"
    value {
      type: DT_FLOAT
    }
  }
  attr {
    key: "Tdim"
    value {
      type: DT_INT32
    }
  }
  attr {
    key: "_output_shapes"
    value {
      list {
        shape {
          dim {
            size: -1
          }
          dim {
            size: 1
          }
        }
      }
    }
  }
}
node {
  name: "dnn/input_from_feature_columns/input_layer/Cylinders_1/Shape"
  op: "Shape"
  input: "dnn/input_from_feature_columns/input_layer/Cylinders_1/ExpandDims"
  attr {
    key: "T"
    value {
      type: DT_FLOAT
    }
  }
  attr {
    key: "_output_shapes"
    value {
      list {
        shape {
          dim {
            size: 2
          }
        }
      }
    }
  }
  attr {
    key: "out_type"
    value {
      type: DT_INT32
    }
  }
}
node {
  name: "dnn/input_from_feature_columns/input_layer/Cylinders_1/strided_slice/stack"
  op: "Const"
  attr {
    key: "_output_shapes"
    value {
      list {
        shape {
          dim {
            size: 1
          }
        }
      }
    }
  }
  attr {
    key: "dtype"
    value {
      type: DT_INT32
    }
  }
  attr {
    key: "value"
    value {
      tensor {
        dtype: DT_INT32
        tensor_shape {
          dim {
            size: 1
          }
        }
        int_val: 0
      }
    }
  }
}
node {
  name: "dnn/input_from_feature_columns/input_layer/Cylinders_1/strided_slice/stack_1"
  op: "Const"
  attr {
    key: "_output_shapes"
    value {
      list {
        shape {
          dim {
            size: 1
          }
        }
      }
    }
  }
  attr {
    key: "dtype"
    value {
      type: DT_INT32
    }
  }
  attr {
    key: "value"
    value {
      tensor {
        dtype: DT_INT32
        tensor_shape {
          dim {
            size: 1
          }
        }
        int_val: 1
      }
    }
  }
}
node {
  name: "dnn/input_from_feature_columns/input_layer/Cylinders_1/strided_slice/stack_2"
  op: "Const"
  attr {
    key: "_output_shapes"
    value {
      list {
        shape {
          dim {
            size: 1
          }
        }
      }
    }
  }
  attr {
    key: "dtype"
    value {
      type: DT_INT32
    }
  }
  attr {
    key: "value"
    value {
      tensor {
        dtype: DT_INT32
        tensor_shape {
          dim {
            size: 1
          }
        }
        int_val: 1
      }
    }
  }
}
node {
  name: "dnn/input_from_feature_columns/input_layer/Cylinders_1/strided_slice"
  op: "StridedSlice"
  input: "dnn/input_from_feature_columns/input_layer/Cylinders_1/Shape"
  input: "dnn/input_from_feature_columns/input_layer/Cylinders_1/strided_slice/stack"
  input: "dnn/input_from_feature_columns/input_layer/Cylinders_1/strided_slice/stack_1"
  input: "dnn/input_from_feature_columns/input_layer/Cylinders_1/strided_slice/stack_2"
  attr {
    key: "Index"
    value {
      type: DT_INT32
    }
  }
  attr {
    key: "T"
    value {
      type: DT_INT32
    }
  }
  attr {
    key: "_output_shapes"
    value {
      list {
        shape {
        }
      }
    }
  }
  attr {
    key: "begin_mask"
    value {
      i: 0
    }
  }
  attr {
    key: "ellipsis_mask"
    value {
      i: 0
    }
  }
  attr {
    key: "end_mask"
    value {
      i: 0
    }
  }
  attr {
    key: "new_axis_mask"
    value {
      i: 0
    }
  }
  attr {
    key: "shrink_axis_mask"
    value {
      i: 1
    }
  }
}
node {
  name: "dnn/input_from_feature_columns/input_layer/Cylinders_1/Reshape/shape/1"
  op: "Const"
  attr {
    key: "_output_shapes"
    value {
      list {
        shape {
        }
      }
    }
  }
  attr {
    key: "dtype"
    value {
      type: DT_INT32
    }
  }
  attr {
    key: "value"
    value {
      tensor {
        dtype: DT_INT32
        tensor_shape {
        }
        int_val: 1
      }
    }
  }
}
node {
  name: "dnn/input_from_feature_columns/input_layer/Cylinders_1/Reshape/shape"
  op: "Pack"
  input: "dnn/input_from_feature_columns/input_layer/Cylinders_1/strided_slice"
  input: "dnn/input_from_feature_columns/input_layer/Cylinders_1/Reshape/shape/1"
  attr {
    key: "N"
    value {
      i: 2
    }
  }
  attr {
    key: "T"
    value {
      type: DT_INT32
    }
  }
  attr {
    key: "_output_shapes"
    value {
      list {
        shape {
          dim {
            size: 2
          }
        }
      }
    }
  }
  attr {
    key: "axis"
    value {
      i: 0
    }
  }
}
node {
  name: "dnn/input_from_feature_columns/input_layer/Cylinders_1/Reshape"
  op: "Reshape"
  input: "dnn/input_from_feature_columns/input_layer/Cylinders_1/ExpandDims"
  input: "dnn/input_from_feature_columns/input_layer/Cylinders_1/Reshape/shape"
  attr {
    key: "T"
    value {
      type: DT_FLOAT
    }
  }
  attr {
    key: "Tshape"
    value {
      type: DT_INT32
    }
  }
  attr {
    key: "_output_shapes"
    value {
      list {
        shape {
          dim {
            size: -1
          }
          dim {
            size: 1
          }
        }
      }
    }
  }
}
node {
  name: "dnn/input_from_feature_columns/input_layer/Displacement_1/ExpandDims/dim"
  op: "Const"
  attr {
    key: "_output_shapes"
    value {
      list {
        shape {
        }
      }
    }
  }
  attr {
    key: "dtype"
    value {
      type: DT_INT32
    }
  }
  attr {
    key: "value"
    value {
      tensor {
        dtype: DT_INT32
        tensor_shape {
        }
        int_val: -1
      }
    }
  }
}
node {
  name: "dnn/input_from_feature_columns/input_layer/Displacement_1/ExpandDims"
  op: "ExpandDims"
  input: "dnn/Cast_2"
  input: "dnn/input_from_feature_columns/input_layer/Displacement_1/ExpandDims/dim"
  attr {
    key: "T"
    value {
      type: DT_FLOAT
    }
  }
  attr {
    key: "Tdim"
    value {
      type: DT_INT32
    }
  }
  attr {
    key: "_output_shapes"
    value {
      list {
        shape {
          dim {
            size: -1
          }
          dim {
            size: 1
          }
        }
      }
    }
  }
}
node {
  name: "dnn/input_from_feature_columns/input_layer/Displacement_1/Shape"
  op: "Shape"
  input: "dnn/input_from_feature_columns/input_layer/Displacement_1/ExpandDims"
  attr {
    key: "T"
    value {
      type: DT_FLOAT
    }
  }
  attr {
    key: "_output_shapes"
    value {
      list {
        shape {
          dim {
            size: 2
          }
        }
      }
    }
  }
  attr {
    key: "out_type"
    value {
      type: DT_INT32
    }
  }
}
node {
  name: "dnn/input_from_feature_columns/input_layer/Displacement_1/strided_slice/stack"
  op: "Const"
  attr {
    key: "_output_shapes"
    value {
      list {
        shape {
          dim {
            size: 1
          }
        }
      }
    }
  }
  attr {
    key: "dtype"
    value {
      type: DT_INT32
    }
  }
  attr {
    key: "value"
    value {
      tensor {
        dtype: DT_INT32
        tensor_shape {
          dim {
            size: 1
          }
        }
        int_val: 0
      }
    }
  }
}
node {
  name: "dnn/input_from_feature_columns/input_layer/Displacement_1/strided_slice/stack_1"
  op: "Const"
  attr {
    key: "_output_shapes"
    value {
      list {
        shape {
          dim {
            size: 1
          }
        }
      }
    }
  }
  attr {
    key: "dtype"
    value {
      type: DT_INT32
    }
  }
  attr {
    key: "value"
    value {
      tensor {
        dtype: DT_INT32
        tensor_shape {
          dim {
            size: 1
          }
        }
        int_val: 1
      }
    }
  }
}
node {
  name: "dnn/input_from_feature_columns/input_layer/Displacement_1/strided_slice/stack_2"
  op: "Const"
  attr {
    key: "_output_shapes"
    value {
      list {
        shape {
          dim {
            size: 1
          }
        }
      }
    }
  }
  attr {
    key: "dtype"
    value {
      type: DT_INT32
    }
  }
  attr {
    key: "value"
    value {
      tensor {
        dtype: DT_INT32
        tensor_shape {
          dim {
            size: 1
          }
        }
        int_val: 1
      }
    }
  }
}
node {
  name: "dnn/input_from_feature_columns/input_layer/Displacement_1/strided_slice"
  op: "StridedSlice"
